{
    "version": "1.0",
    "truncation": null,
    "padding": null,
    "added_tokens": [],
    "normalizer": {
        "type": "Sequence",
        "normalizers": [
            {
                "type": "Prepend",
                "prepend": " "
            },
            {
                "type": "NFKC"
            },
            {
                "type": "Replace",
                "pattern": {
                    "Regex": "\n"
                },
                "content": "\n "
            },
            {
                "type": "Replace",
                "pattern": {
                    "Regex": " *\n"
                },
                "content": "\n"
            }
        ]
    },
    "pre_tokenizer": {
        "type": "Sequence",
        "pretokenizers": [
            {
                "type": "Split",
                "pattern": {
                    "Regex": "[^\\r\\n\\p{L}\\p{N}]?[\\p{Lu}\\p{Lt}\\p{Lm}\\p{Lo}\\p{M}]*[\\p{Ll}\\p{Lm}\\p{Lo}\\p{M}]+|[^\\r\\n\\p{L}\\p{N}]?[\\p{Lu}\\p{Lt}\\p{Lm}\\p{Lo}\\p{M}]+[\\p{Ll}\\p{Lm}\\p{Lo}\\p{M}]*|\\p{N}| ?[^\\s\\p{L}\\p{N}]+[\\r\\n/]*|\\s*[\\r\\n]+|\\s+(?!\\S)|\\s+"
                },
                "behavior": "Isolated",
                "invert": false
            },
            {
                "type": "ByteLevel",
                "add_prefix_space": false,
                "trim_offsets": true,
                "use_regex": false
            },
            {
                "type": "Split",
                "pattern": {
                    "Regex": ".{1,24}"
                },
                "behavior": "Isolated",
                "invert": false
            }
        ]
    },
    "post_processor": {
        "type": "TemplateProcessing",
        "single": [
            {
                "SpecialToken": {
                    "id": "<s>",
                    "type_id": 0
                }
            },
            {
                "Sequence": {
                    "id": "A",
                    "type_id": 0
                }
            }
        ],
        "pair": [
            {
                "SpecialToken": {
                    "id": "<s>",
                    "type_id": 0
                }
            },
            {
                "Sequence": {
                    "id": "A",
                    "type_id": 0
                }
            },
            {
                "SpecialToken": {
                    "id": "<s>",
                    "type_id": 0
                }
            },
            {
                "Sequence": {
                    "id": "B",
                    "type_id": 0
                }
            }
        ],
        "special_tokens": {
            "<s>": {
                "id": "<s>",
                "ids": [
                    1
                ],
                "tokens": [
                    "<s>"
                ]
            }
        }
    },
    "decoder": {
        "type": "Sequence",
        "decoders": [
            {
                "type": "ByteLevel",
                "add_prefix_space": true,
                "trim_offsets": true,
                "use_regex": true
            },
            {
                "type": "Strip",
                "content": " ",
                "start": 1,
                "stop": 0
            },
            {
                "type": "Replace",
                "pattern": {
                    "String": "\n "
                },
                "content": "\n"
            }
        ]
    },
    "model": {
        "type": "BPE",
        "dropout": null,
        "unk_token": "<unk>",
        "continuing_subword_prefix": null,
        "end_of_word_suffix": null,
        "fuse_unk": false,
        "byte_fallback": false,
        "ignore_merges": true,
        "vocab": {
            "<unk>": 0,
            "<s>": 1,
            "</s>": 2,
            "<pad>": 3,
            "<mask>": 4,
            "<special_0>": 5,
            "<special_1>": 6,
            "<special_2>": 7,
            "<special_3>": 8,
            "<special_4>": 9,
            "<special_5>": 10,
            "<special_6>": 11,
            "<special_7>": 12,
            "<special_8>": 13,
            "<special_9>": 14,
            "<special_10>": 15,
            "!": 16,
            "\"": 17,
            "#": 18,
            "$": 19,
            "%": 20,
            "&": 21,
            "'": 22,
            "(": 23,
            ")": 24,
            "*": 25,
            "+": 26,
            ",": 27,
            "-": 28,
            ".": 29,
            "/": 30,
            "0": 31,
            "1": 32,
            "2": 33,
            "3": 34,
            "4": 35,
            "5": 36,
            "6": 37,
            "7": 38,
            "8": 39,
            "9": 40,
            ":": 41,
            ";": 42,
            "<": 43,
            "=": 44,
            ">": 45,
            "?": 46,
            "@": 47,
            "A": 48,
            "B": 49,
            "C": 50,
            "D": 51,
            "E": 52,
            "F": 53,
            "G": 54,
            "H": 55,
            "I": 56,
            "J": 57,
            "K": 58,
            "L": 59,
            "M": 60,
            "N": 61,
            "O": 62,
            "P": 63,
            "Q": 64,
            "R": 65,
            "S": 66,
            "T": 67,
            "U": 68,
            "V": 69,
            "W": 70,
            "X": 71,
            "Y": 72,
            "Z": 73,
            "[": 74,
            "\\": 75,
            "]": 76,
            "^": 77,
            "_": 78,
            "`": 79,
            "a": 80,
            "b": 81,
            "c": 82,
            "d": 83,
            "e": 84,
            "f": 85,
            "g": 86,
            "h": 87,
            "i": 88,
            "j": 89,
            "k": 90,
            "l": 91,
            "m": 92,
            "n": 93,
            "o": 94,
            "p": 95,
            "q": 96,
            "r": 97,
            "s": 98,
            "t": 99,
            "u": 100,
            "v": 101,
            "w": 102,
            "x": 103,
            "y": 104,
            "z": 105,
            "{": 106,
            "|": 107,
            "}": 108,
            "~": 109,
            "¡": 110,
            "¢": 111,
            "£": 112,
            "¤": 113,
            "¥": 114,
            "¦": 115,
            "§": 116,
            "¨": 117,
            "©": 118,
            "ª": 119,
            "«": 120,
            "¬": 121,
            "®": 122,
            "¯": 123,
            "°": 124,
            "±": 125,
            "²": 126,
            "³": 127,
            "´": 128,
            "µ": 129,
            "¶": 130,
            "·": 131,
            "¸": 132,
            "¹": 133,
            "º": 134,
            "»": 135,
            "¼": 136,
            "½": 137,
            "¾": 138,
            "¿": 139,
            "À": 140,
            "Á": 141,
            "Â": 142,
            "Ã": 143,
            "Ä": 144,
            "Å": 145,
            "Æ": 146,
            "Ç": 147,
            "È": 148,
            "É": 149,
            "Ê": 150,
            "Ë": 151,
            "Ì": 152,
            "Í": 153,
            "Î": 154,
            "Ï": 155,
            "Ð": 156,
            "Ñ": 157,
            "Ò": 158,
            "Ó": 159,
            "Ô": 160,
            "Õ": 161,
            "Ö": 162,
            "×": 163,
            "Ø": 164,
            "Ù": 165,
            "Ú": 166,
            "Û": 167,
            "Ü": 168,
            "Ý": 169,
            "Þ": 170,
            "ß": 171,
            "à": 172,
            "á": 173,
            "â": 174,
            "ã": 175,
            "ä": 176,
            "å": 177,
            "æ": 178,
            "ç": 179,
            "è": 180,
            "é": 181,
            "ê": 182,
            "ë": 183,
            "ì": 184,
            "í": 185,
            "î": 186,
            "ï": 187,
            "ð": 188,
            "ñ": 189,
            "ò": 190,
            "ó": 191,
            "ô": 192,
            "õ": 193,
            "ö": 194,
            "÷": 195,
            "ø": 196,
            "ù": 197,
            "ú": 198,
            "û": 199,
            "ü": 200,
            "ý": 201,
            "þ": 202,
            "ÿ": 203,
            "Ā": 204,
            "ā": 205,
            "Ă": 206,
            "ă": 207,
            "Ą": 208,
            "ą": 209,
            "Ć": 210,
            "ć": 211,
            "Ĉ": 212,
            "ĉ": 213,
            "Ċ": 214,
            "ċ": 215,
            "Č": 216,
            "č": 217,
            "Ď": 218,
            "ď": 219,
            "Đ": 220,
            "đ": 221,
            "Ē": 222,
            "ē": 223,
            "Ĕ": 224,
            "ĕ": 225,
            "Ė": 226,
            "ė": 227,
            "Ę": 228,
            "ę": 229,
            "Ě": 230,
            "ě": 231,
            "Ĝ": 232,
            "ĝ": 233,
            "Ğ": 234,
            "ğ": 235,
            "Ġ": 236,
            "ġ": 237,
            "Ģ": 238,
            "ģ": 239,
            "Ĥ": 240,
            "ĥ": 241,
            "Ħ": 242,
            "ħ": 243,
            "Ĩ": 244,
            "ĩ": 245,
            "Ī": 246,
            "ī": 247,
            "Ĭ": 248,
            "ĭ": 249,
            "Į": 250,
            "į": 251,
            "İ": 252,
            "ı": 253,
            "Ĳ": 254,
            "ĳ": 255,
            "Ĵ": 256,
            "ĵ": 257,
            "Ķ": 258,
            "ķ": 259,
            "ĸ": 260,
            "Ĺ": 261,
            "ĺ": 262,
            "Ļ": 263,
            "ļ": 264,
            "Ľ": 265,
            "ľ": 266,
            "Ŀ": 267,
            "ŀ": 268,
            "Ł": 269,
            "ł": 270,
            "Ń": 271,
            "Ġt": 272,
            "he": 273,
            "Ġa": 274,
            ".\\": 275,
            "in": 276,
            "Ġw": 277,
            "Ġthe": 278,
            "ou": 279,
            "Ġs": 280,
            "re": 281,
            "Ġo": 282,
            "ha": 283,
            "er": 284,
            "nd": 285,
            "Ġb": 286,
            "it": 287,
            "is": 288,
            "Ġc": 289,
            "Ġm": 290,
            "Ġy": 291,
            "Ġd": 292,
            "on": 293,
            "ing": 294,
            "Ġf": 295,
            "ll": 296,
            "Ġto": 297,
            "OT": 298,
            "*M": 299,
            "Ġyou": 300,
            "*MOT": 301,
            "an": 302,
            "ed": 303,
            "es": 304,
            "or": 305,
            "Ġp": 306,
            "hat": 307,
            "Ġg": 308,
            "en": 309,
            "Ġl": 310,
            "CH": 311,
            "?\\": 312,
            "Ġand": 313,
            "CHI": 314,
            "*CHI": 315,
            "Ġn": 316,
            "ar": 317,
            "ĠI": 318,
            "Ġof": 319,
            "as": 320,
            "Ġin": 321,
            "at": 322,
            "Ġhe": 323,
            "om": 324,
            "ow": 325,
            "Ġh": 326,
            "'s": 327,
            "Ġit": 328,
            "ot": 329,
            "Ġha": 330,
            "et": 331,
            "le": 332,
            "Ġthat": 333,
            "ve": 334,
            "Ġth": 335,
            "ay": 336,
            "Ġon": 337,
            "ic": 338,
            "us": 339,
            "gh": 340,
            "Ġbe": 341,
            "id": 342,
            "Ġis": 343,
            "\\\"": 344,
            "Ġwe": 345,
            "Ġe": 346,
            "ld": 347,
            "ut": 348,
            "oo": 349,
            "al": 350,
            "Ġwas": 351,
            "im": 352,
            "ac": 353,
            "'t": 354,
            "ke": 355,
            "ad": 356,
            "Ġdo": 357,
            "ver": 358,
            "Ġre": 359,
            "Ġr": 360,
            "Ġu": 361,
            "ir": 362,
            "ght": 363,
            "Ġfor": 364,
            "se": 365,
            "ly": 366,
            "Ġst": 367,
            "ent": 368,
            "am": 369,
            "ion": 370,
            "ĠT": 371,
            "ĠM": 372,
            "Ġ=": 373,
            "out": 374,
            "ĠS": 375,
            "st": 376,
            "Ġk": 377,
            "ith": 378,
            "Ġme": 379,
            "âĢ": 380,
            "ight": 381,
            "ea": 382,
            "ĠA": 383,
            "Ġan": 384,
            "Ġwhat": 385,
            "Ġwith": 386,
            "her": 387,
            "Ġwh": 388,
            "ur": 389,
            "ome": 390,
            "Ġgo": 391,
            "Ġse": 392,
            "all": 393,
            "!\\": 394,
            "Ġas": 395,
            "ill": 396,
            "ĠC": 397,
            "ch": 398,
            "Ġnot": 399,
            "Ġthis": 400,
            "ĠB": 401,
            "Ġat": 402,
            "ter": 403,
            "Ġli": 404,
            "]\\": 405,
            "..": 406,
            "ould": 407,
            "Ġhave": 408,
            "ro": 409,
            "Ġare": 410,
            "Ġno": 411,
            "\\n": 412,
            "ce": 413,
            "ĠH": 414,
            "Ġkn": 415,
            "Ġthere": 416,
            "ie": 417,
            "ook": 418,
            "Ġthey": 419,
            "Ġcan": 420,
            "if": 421,
            "il": 422,
            "ust": 423,
            "Ġhis": 424,
            "Ġone": 425,
            "ant": 426,
            "un": 427,
            "Ġwhe": 428,
            "ain": 429,
            "ct": 430,
            "Ġfr": 431,
            "Ġso": 432,
            "Ġj": 433,
            "Ġknow": 434,
            "Ġup": 435,
            "op": 436,
            "Ġshe": 437,
            "Ġdon": 438,
            "Ġher": 439,
            "and": 440,
            "eah": 441,
            "Ġyour": 442,
            "xx": 443,
            "um": 444,
            "Ġ\\\"": 445,
            "ell": 446,
            "ore": 447,
            "Ġne": 448,
            "Ġ[": 449,
            "Ġall": 450,
            "ĠP": 451,
            "Ġhad": 452,
            "IN": 453,
            "Ġmy": 454,
            "The": 455,
            "ge": 456,
            "Ġsh": 457,
            "pp": 458,
            "ĠD": 459,
            "our": 460,
            "ĠW": 461,
            "Ġsa": 462,
            "Ġbut": 463,
            "Ġlike": 464,
            "ri": 465,
            "ab": 466,
            "ack": 467,
            "Ġout": 468,
            "ĠThe": 469,
            "el": 470,
            "ood": 471,
            "INV": 472,
            "*INV": 473,
            "art": 474,
            "ol": 475,
            "Ġhim": 476,
            "ul": 477,
            "Ġpl": 478,
            "Ġget": 479,
            "ink": 480,
            "ig": 481,
            "Ġal": 482,
            "ĠG": 483,
            "ry": 484,
            "ck": 485,
            "AT": 486,
            "ake": 487,
            "Ġab": 488,
            "'re": 489,
            "Ġfrom": 490,
            "Ġde": 491,
            "th": 492,
            "Ġlook": 493,
            "Ġsee": 494,
            "Ġdid": 495,
            "red": 496,
            "ĠJ": 497,
            "You": 498,
            "...\\": 499,
            "ĠF": 500,
            "ers": 501,
            "Ġor": 502,
            "*F": 503,
            "ĠL": 504,
            "han": 505,
            "very": 506,
            "ation": 507,
            "Ġwere": 508,
            "ĠR": 509,
            "ound": 510,
            "Ġhere": 511,
            "ĠN": 512,
            "Ġoh": 513,
            "ess": 514,
            "Ġby": 515,
            "est": 516,
            "Ġyeah": 517,
            "Ġsu": 518,
            "ra": 519,
            "ist": 520,
            "qu": 521,
            "ard": 522,
            "ind": 523,
            "nt": 524,
            "ame": 525,
            "Ġthem": 526,
            "'m": 527,
            "os": 528,
            "own": 529,
            "ong": 530,
            "itt": 531,
            "Ġsome": 532,
            "Ġgot": 533,
            "*FAT": 534,
            "ak": 535,
            "one": 536,
            "na": 537,
            "Ġcom": 538,
            "Ġwho": 539,
            "Ġjust": 540,
            "use": 541,
            "Ġthink": 542,
            "ast": 543,
            "Ġabout": 544,
            "Ġsp": 545,
            "Ġwant": 546,
            "Ġwor": 547,
            "ĠE": 548,
            "Ġright": 549,
            "res": 550,
            "ive": 551,
            "ally": 552,
            "Ġsaid": 553,
            "Ġnow": 554,
            "ep": 555,
            "em": 556,
            "'ll": 557,
            "Ġwould": 558,
            "Ġv": 559,
            "ap": 560,
            "].\\": 561,
            "Ġif": 562,
            "ick": 563,
            "ice": 564,
            "Ġbo": 565,
            "Ġthen": 566,
            "Ġwhen": 567,
            "ate": 568,
            "ĠO": 569,
            "Ġex": 570,
            "Ġcon": 571,
            "Ġman": 572,
            "\"\\": 573,
            "ber": 574,
            "Ġtw": 575,
            "ough": 576,
            "Ġany": 577,
            "Ġsay": 578,
            "ime": 579,
            "ich": 580,
            "ort": 581,
            "xxx": 582,
            "Ġxxx": 583,
            "âĢľ": 584,
            "ine": 585,
            "Ġus": 586,
            "Ġput": 587,
            "hing": 588,
            "od": 589,
            "ven": 590,
            "fe": 591,
            "kay": 592,
            "other": 593,
            "Ġtr": 594,
            "ide": 595,
            "âĢĿ": 596,
            "Ġwill": 597,
            "Ġ(": 598,
            "Ġwhere": 599,
            "hi": 600,
            "ittle": 601,
            "ag": 602,
            "âĢĻ": 603,
            "Ġdown": 604,
            "ear": 605,
            "Ġint": 606,
            "Ġgood": 607,
            "ies": 608,
            "ous": 609,
            "ther": 610,
            "Ġback": 611,
            "ca": 612,
            "Ġlittle": 613,
            "Ġag": 614,
            "way": 615,
            "au": 616,
            "Ġcl": 617,
            "It": 618,
            "Ġpro": 619,
            "ĠHe": 620,
            "ost": 621,
            "Ġgoing": 622,
            "'ve": 623,
            "ose": 624,
            "--": 625,
            "Ġbr": 626,
            "Ġbeen": 627,
            "Ġmore": 628,
            "Ġcould": 629,
            "Ġwell": 630,
            "Ġtime": 631,
            "Ġhas": 632,
            "Ġover": 633,
            "Ġar": 634,
            "Ġcome": 635,
            "Ġoff": 636,
            "Ġwhich": 637,
            ".\\\"\\": 638,
            "Ġvery": 639,
            "Ġtheir": 640,
            "ĠIt": 641,
            "ace": 642,
            "Ġ'": 643,
            "Ġtwo": 644,
            "Ġtoo": 645,
            "Ġpe": 646,
            "lf": 647,
            "ity": 648,
            "Ġokay": 649,
            "ĠK": 650,
            "ove": 651,
            "cause": 652,
            "ree": 653,
            "ite": 654,
            "He": 655,
            "Ġhow": 656,
            "Ġother": 657,
            "\"Ċ": 658,
            "Ġ\"": 659,
            "Ġqu": 660,
            "Ġplay": 661,
            "Ġgr": 662,
            "ish": 663,
            "Ġ=\\": 664,
            "Ġ\"=": 665,
            "Ġle": 666,
            "ure": 667,
            "Ġbl": 668,
            "Ġfe": 669,
            "Ġaf": 670,
            "are": 671,
            "Ġlet": 672,
            "ings": 673,
            "What": 674,
            "ond": 675,
            "ud": 676,
            "Ġyes": 677,
            ",\\\"": 678,
            "alk": 679,
            "my": 680,
            "ft": 681,
            "reat": 682,
            "Ġthan": 683,
            "orn": 684,
            "And": 685,
            "urn": 686,
            "ue": 687,
            "Ġro": 688,
            "age": 689,
            "ĠU": 690,
            "hed": 691,
            "omet": 692,
            "Ġdoes": 693,
            ".\"Ċ": 694,
            "Ġinto": 695,
            "ment": 696,
            "ian": 697,
            "ought": 698,
            "onna": 699,
            "pl": 700,
            "AR": 701,
            "ople": 702,
            "ty": 703,
            "Ġagain": 704,
            "ass": 705,
            "Ġer": 706,
            "pe": 707,
            "irst": 708,
            "Yeah": 709,
            "iv": 710,
            "Ġgonna": 711,
            "Ġway": 712,
            "Ġmake": 713,
            "ade": 714,
            "ia": 715,
            "uck": 716,
            "ire": 717,
            "ps": 718,
            "ble": 719,
            "Ġen": 720,
            "add": 721,
            "ater": 722,
            "Ġpeople": 723,
            "Ġsomet": 724,
            "ase": 725,
            "Ġtake": 726,
            "Ġsha": 727,
            "Ġtell": 728,
            "Ġwork": 729,
            "ary": 730,
            "Ġpr": 731,
            "ount": 732,
            "ne": 733,
            "Ġcall": 734,
            "iss": 735,
            "Ġco": 736,
            "No": 737,
            "Ġcar": 738,
            "Oh": 739,
            "We": 740,
            "Ġfl": 741,
            "Ġday": 742,
            "ĠSt": 743,
            "int": 744,
            "ov": 745,
            "Ġfirst": 746,
            "Ġam": 747,
            "ng": 748,
            "ci": 749,
            "pt": 750,
            "Ġhand": 751,
            "Ġuh": 752,
            "...": 753,
            "per": 754,
            "Ġneed": 755,
            "ys": 756,
            "Ġafter": 757,
            "ran": 758,
            "ull": 759,
            "ord": 760,
            "nder": 761,
            "Ġmean": 762,
            "ise": 763,
            "Ġbecause": 764,
            "Ġthr": 765,
            "his": 766,
            "uch": 767,
            "uh": 768,
            "so": 769,
            "Ġpart": 770,
            "Ġbet": 771,
            "self": 772,
            "Ġch": 773,
            "fore": 774,
            "Ġonly": 775,
            "Ġshould": 776,
            "we": 777,
            "wn": 778,
            "Ġour": 779,
            "mer": 780,
            "ff": 781,
            "act": 782,
            "Ġevery": 783,
            "Ġte": 784,
            "ather": 785,
            "ark": 786,
            "ouse": 787,
            ",\\": 788,
            "ub": 789,
            "iz": 790,
            "ach": 791,
            "ob": 792,
            "av": 793,
            "Ġthese": 794,
            "ock": 795,
            "Ġun": 796,
            "Ġdidn": 797,
            "Ġbig": 798,
            "That": 799,
            "augh": 800,
            "Ġcha": 801,
            "*P": 802,
            "Ġmuch": 803,
            "But": 804,
            "ress": 805,
            "Ġpre": 806,
            "able": 807,
            "les": 808,
            "Ġmade": 809,
            "Ġsomething": 810,
            "Ġhapp": 811,
            "ool": 812,
            "ady": 813,
            "ren": 814,
            "Ġreally": 815,
            "Ġsm": 816,
            "ile": 817,
            "irl": 818,
            "ting": 819,
            "thing": 820,
            "Ġad": 821,
            "old": 822,
            "Ġyear": 823,
            "Ġgu": 824,
            "man": 825,
            "Ġlong": 826,
            "Ġchi": 827,
            "ied": 828,
            "og": 829,
            "oc": 830,
            "hes": 831,
            "Ġwhy": 832,
            "Well": 833,
            "Ġdis": 834,
            "Ġpo": 835,
            "Yes": 836,
            "te": 837,
            "be": 838,
            "day": 839,
            "cl": 840,
            "Ġaway": 841,
            "ĠâĢľ": 842,
            "anna": 843,
            "ated": 844,
            "ory": 845,
            "Ġtalk": 846,
            "Ġbefore": 847,
            "ew": 848,
            "Ġke": 849,
            "Ġwent": 850,
            "Ġsc": 851,
            "ict": 852,
            "ions": 853,
            "Ġmay": 854,
            "hy": 855,
            "âĢĿ\\": 856,
            "Ġunder": 857,
            "ĠV": 858,
            "ang": 859,
            "ĠMr": 860,
            "cc": 861,
            "Ġrem": 862,
            "Ġwr": 863,
            "Ġcr": 864,
            "ence": 865,
            "Ġwanna": 866,
            "ny": 867,
            "Ġgirl": 868,
            "Ġim": 869,
            "'d": 870,
            "ving": 871,
            "*E": 872,
            "Ġold": 873,
            "Ġthree": 874,
            "Ġsec": 875,
            "Ġum": 876,
            "Ġhel": 877,
            "ix": 878,
            "ward": 879,
            "Ġturn": 880,
            "oll": 881,
            "Ġthose": 882,
            "ĠIn": 883,
            "*PAR": 884,
            "ip": 885,
            "Ġdoing": 886,
            "Ġchild": 887,
            "hen": 888,
            "Ġcame": 889,
            "Ġapp": 890,
            "iend": 891,
            "Ġalso": 892,
            "Ġeat": 893,
            "atch": 894,
            "Ġnever": 895,
            "Ġask": 896,
            "tain": 897,
            "Ġact": 898,
            "ful": 899,
            "Ġbab": 900,
            "Ġhome": 901,
            "Ġthought": 902,
            "Ġhead": 903,
            "Ġper": 904,
            "gg": 905,
            "pen": 906,
            "hm": 907,
            "ons": 908,
            "Ġanother": 909,
            "Ġhouse": 910,
            "ors": 911,
            "Ġthing": 912,
            "Ġbook": 913,
            "XP": 914,
            "akes": 915,
            "Ġthings": 916,
            "ried": 917,
            "Ġthrough": 918,
            "Ġnew": 919,
            "So": 920,
            "Ġeven": 921,
            "Ġfind": 922,
            "Ġgive": 923,
            "Ġbu": 924,
            "Ġmust": 925,
            "Ġgreat": 926,
            "ance": 927,
            "ks": 928,
            "*EXP": 929,
            "ious": 930,
            "âĢĻs": 931,
            "Ġmany": 932,
            "up": 933,
            "oh": 934,
            "Ġsl": 935,
            "ath": 936,
            "Ġstart": 937,
            "ved": 938,
            "ĠShe": 939,
            "here": 940,
            "Ġbit": 941,
            "Ġple": 942,
            "Ġstill": 943,
            "Ġhelp": 944,
            "Ġcomp": 945,
            "ans": 946,
            "ily": 947,
            "ail": 948,
            "ect": 949,
            "ĠCh": 950,
            "oot": 951,
            "get": 952,
            "ait": 953,
            "laugh": 954,
            "ave": 955,
            "Ġmom": 956,
            "Ġlast": 957,
            "Ġlea": 958,
            "land": 959,
            "Ġwon": 960,
            "Ġcalled": 961,
            "Ġboy": 962,
            "Ġtry": 963,
            "ign": 964,
            "igh": 965,
            "Ġfound": 966,
            "ĠY": 967,
            "oy": 968,
            "Ġdone": 969,
            "TE": 970,
            "aking": 971,
            "Ġshow": 972,
            "ru": 973,
            "ody": 974,
            "Ġhappen": 975,
            "air": 976,
            "Ġmight": 977,
            "ĠAnd": 978,
            "rd": 979,
            "Ġbaby": 980,
            "Ġnight": 981,
            "ves": 982,
            "xt": 983,
            "Ġlot": 984,
            "Ġel": 985,
            "ummy": 986,
            "Ġres": 987,
            "Ġisn": 988,
            "Ġcont": 989,
            "Ġlove": 990,
            "Ġbel": 991,
            "Ġser": 992,
            "Ġbot": 993,
            "ult": 994,
            "Ġmin": 995,
            "ling": 996,
            "side": 997,
            "Ġname": 998,
            "Ġche": 999,
            "Ġchan": 1000,
            "ĠUn": 1001,
            "ms": 1002,
            "ates": 1003,
            "med": 1004,
            "*G": 1005,
            "In": 1006,
            "ars": 1007,
            "ually": 1008,
            "ild": 1009,
            "als": 1010,
            "ee": 1011,
            "Ġopen": 1012,
            "aw": 1013,
            "body": 1014,
            "Ġfriend": 1015,
            "Ġaround": 1016,
            "yes": 1017,
            "Ġdif": 1018,
            "They": 1019,
            ":\\": 1020,
            "iver": 1021,
            "Ġits": 1022,
            "chool": 1023,
            "oss": 1024,
            "Ġown": 1025,
            ".]\\": 1026,
            "Ġgl": 1027,
            "Ġmov": 1028,
            "ah": 1029,
            "Ġkind": 1030,
            "She": 1031,
            "Ġwater": 1032,
            "Ġcare": 1033,
            "ĠThey": 1034,
            "oney": 1035,
            "Ġbetter": 1036,
            "Ġmost": 1037,
            "Ġcomm": 1038,
            ".âĢĿ\\": 1039,
            "ember": 1040,
            ",âĢĿ": 1041,
            "Ġmhm": 1042,
            "Ġend": 1043,
            "Ġcount": 1044,
            "*S": 1045,
            "IS": 1046,
            "Ġsure": 1047,
            "Ġfour": 1048,
            "ces": 1049,
            "Ġrec": 1050,
            "ever": 1051,
            "rent": 1052,
            "This": 1053,
            "Ġmother": 1054,
            "There": 1055,
            "Ġplace": 1056,
            "imes": 1057,
            "ope": 1058,
            "ww": 1059,
            "Ġnice": 1060,
            "!\\\"": 1061,
            "Ġbeing": 1062,
            "ical": 1063,
            "Ġused": 1064,
            "Ġkeep": 1065,
            "Ġlooks": 1066,
            "Ġfeel": 1067,
            "Ġdr": 1068,
            "led": 1069,
            "Ġyears": 1070,
            "AN": 1071,
            "ited": 1072,
            "ways": 1073,
            "%add": 1074,
            "Ġdoesn": 1075,
            "ĠYou": 1076,
            "Ġsuch": 1077,
            "port": 1078,
            "ens": 1079,
            "Ġwhile": 1080,
            "inn": 1081,
            "Ġanything": 1082,
            "Ġrun": 1083,
            "Ġshall": 1084,
            "Ġcour": 1085,
            "Ġelse": 1086,
            "amp": 1087,
            "Ġdes": 1088,
            "ont": 1089,
            "Ġsit": 1090,
            "ince": 1091,
            "Ġbre": 1092,
            "outh": 1093,
            "Ġsame": 1094,
            "Ġbeg": 1095,
            "laughs": 1096,
            "ĠBr": 1097,
            "Ġlife": 1098,
            "Ġfin": 1099,
            "Ġroom": 1100,
            "Ġnext": 1101,
            "ĠBut": 1102,
            "Ġschool": 1103,
            "Ġsw": 1104,
            "ute": 1105,
            "Ġsupp": 1106,
            "ss": 1107,
            "AD": 1108,
            "RO": 1109,
            "addy": 1110,
            "Ġwait": 1111,
            "Ġsaw": 1112,
            "Ġstop": 1113,
            "Ġbus": 1114,
            "orry": 1115,
            "ere": 1116,
            "ird": 1117,
            "atter": 1118,
            "ations": 1119,
            "Ġtold": 1120,
            "orm": 1121,
            "Ġbec": 1122,
            "row": 1123,
            "ump": 1124,
            "Ġset": 1125,
            "Ġleft": 1126,
            "Ġhold": 1127,
            "ĠTh": 1128,
            "How": 1129,
            "ction": 1130,
            "uc": 1131,
            "Ġfar": 1132,
            "ition": 1133,
            "Ġcle": 1134,
            "ĠMummy": 1135,
            "Ġalways": 1136,
            "und": 1137,
            "Ġplease": 1138,
            "Ġword": 1139,
            "Ġâ": 1140,
            "aught": 1141,
            "Ġmon": 1142,
            "Ġwee": 1143,
            "oon": 1144,
            "Ġball": 1145,
            "Ġread": 1146,
            "If": 1147,
            "Ġatt": 1148,
            "ican": 1149,
            "ident": 1150,
            "pr": 1151,
            "Ġmen": 1152,
            "Ġcol": 1153,
            "ung": 1154,
            "arly": 1155,
            "Ġah": 1156,
            "ï¿": 1157,
            "leep": 1158,
            "ta": 1159,
            "Ġhard": 1160,
            "ho": 1161,
            "Ġele": 1162,
            "ins": 1163,
            "Ġdiffe": 1164,
            "mp": 1165,
            "Ġnum": 1166,
            "Ġfather": 1167,
            "Ġspe": 1168,
            "Ġgone": 1169,
            "ï¿½": 1170,
            "Ġtook": 1171,
            "ream": 1172,
            "ug": 1173,
            "Ġdoor": 1174,
            "ĠMar": 1175,
            "Ġever": 1176,
            "Ġuse": 1177,
            "Ġunt": 1178,
            "Ġfam": 1179,
            "oun": 1180,
            "ye": 1181,
            "ister": 1182,
            "?\\\"\\": 1183,
            "HE": 1184,
            "raw": 1185,
            "Ġpoint": 1186,
            "Ġpres": 1187,
            "ness": 1188,
            "Ġfun": 1189,
            "Ġgoes": 1190,
            "vel": 1191,
            "Ġgre": 1192,
            "Ġbed": 1193,
            "Ġwalk": 1194,
            "the": 1195,
            "Ġhuh": 1196,
            "ĠAmer": 1197,
            "Ġfive": 1198,
            "Ġcoming": 1199,
            "Why": 1200,
            "Ġthough": 1201,
            "Ġpol": 1202,
            "Ġbox": 1203,
            "ows": 1204,
            "Ġind": 1205,
            "vent": 1206,
            "Ġwom": 1207,
            "Ġmoney": 1208,
            "Ġsays": 1209,
            "Ġob": 1210,
            "right": 1211,
            "ished": 1212,
            "mber": 1213,
            "Ġac": 1214,
            "Ġenough": 1215,
            "Ġret": 1216,
            "Do": 1217,
            "ts": 1218,
            "orning": 1219,
            "ĠAn": 1220,
            "anc": 1221,
            "âĢĻt": 1222,
            "Ġerm": 1223,
            "erson": 1224,
            "Ġsur": 1225,
            "Ġhear": 1226,
            "ib": 1227,
            "[M": 1228,
            "Ġeyes": 1229,
            "dy": 1230,
            "Ġwatch": 1231,
            "Ġside": 1232,
            "ĠAl": 1233,
            "Ļª": 1234,
            "Ġsing": 1235,
            "ger": 1236,
            "az": 1237,
            "ower": 1238,
            "Ġwar": 1239,
            "uff": 1240,
            "Ġhm": 1241,
            "Ġstr": 1242,
            "Ġface": 1243,
            "Ġstand": 1244,
            "Ġacc": 1245,
            "Ġnothing": 1246,
            "*TE": 1247,
            "Ġuntil": 1248,
            "ĠAr": 1249,
            "Ġreal": 1250,
            "Ġred": 1251,
            "Ġyoung": 1252,
            "Ġasked": 1253,
            "ph": 1254,
            "pect": 1255,
            "ier": 1256,
            "Ġpass": 1257,
            "Ġdog": 1258,
            "Ġlight": 1259,
            "*TEA": 1260,
            "Ġquite": 1261,
            "oup": 1262,
            "Ġpick": 1263,
            "ired": 1264,
            "Ġmorning": 1265,
            "Ġthank": 1266,
            "Ġreg": 1267,
            "ets": 1268,
            "ĠFran": 1269,
            "Ġlooking": 1270,
            "Ġsix": 1271,
            "Ġbelie": 1272,
            "Ġround": 1273,
            "ross": 1274,
            "Ġkill": 1275,
            "bab": 1276,
            "Ġseen": 1277,
            "Ġcourse": 1278,
            "Ġhur": 1279,
            "*MCH": 1280,
            "Now": 1281,
            "gr": 1282,
            "Ġmar": 1283,
            "Ġdist": 1284,
            "ased": 1285,
            "Don": 1286,
            "Ġsecond": 1287,
            "oor": 1288,
            "ike": 1289,
            "Ġph": 1290,
            "Ġsmall": 1291,
            "Ġfew": 1292,
            "Ġstay": 1293,
            "Ġdifferent": 1294,
            "Ġpie": 1295,
            "ial": 1296,
            "Ġremember": 1297,
            "ton": 1298,
            "Ġsound": 1299,
            "ible": 1300,
            "Ġhands": 1301,
            "Ġbest": 1302,
            "Ġfell": 1303,
            "Ġ_": 1304,
            "tle": 1305,
            "ank": 1306,
            "Ġent": 1307,
            "ween": 1308,
            "une": 1309,
            "gether": 1310,
            "me": 1311,
            "Ġtogether": 1312,
            "Ġonce": 1313,
            "Ġmil": 1314,
            "ĠThis": 1315,
            "Ġfall": 1316,
            "ational": 1317,
            "Ġsk": 1318,
            "Ġworld": 1319,
            "Ġwind": 1320,
            "fta": 1321,
            "ES": 1322,
            "huh": 1323,
            "eak": 1324,
            "Ġfire": 1325,
            "Ġhafta": 1326,
            "ning": 1327,
            "MA": 1328,
            "Ġknown": 1329,
            "ĠCha": 1330,
            "uring": 1331,
            "mb": 1332,
            "Ġsleep": 1333,
            "*SIS": 1334,
            "Ġboth": 1335,
            "Ġsn": 1336,
            "Ġgetting": 1337,
            "aster": 1338,
            "Ġheard": 1339,
            "oe": 1340,
            "Ġhat": 1341,
            "Ġsoon": 1342,
            "ten": 1343,
            "Ġyet": 1344,
            "Ġleave": 1345,
            "Ġrel": 1346,
            "Ġeach": 1347,
            "Ġlist": 1348,
            "Ġter": 1349,
            "Ġchildren": 1350,
            "Ġcap": 1351,
            "ash": 1352,
            "ollow": 1353,
            "ush": 1354,
            "Ġbro": 1355,
            "ents": 1356,
            "ret": 1357,
            "Ġupon": 1358,
            "ered": 1359,
            "Ġchar": 1360,
            "Ġtoday": 1361,
            "Ġsorry": 1362,
            "ener": 1363,
            "âĢĵ": 1364,
            "Ġtrain": 1365,
            "Ġhimself": 1366,
            "ctor": 1367,
            "),": 1368,
            "ures": 1369,
            "Ġmind": 1370,
            "ĠDe": 1371,
            "Ġbad": 1372,
            "Ġmm": 1373,
            "ĠGr": 1374,
            "Ġnumber": 1375,
            "Ġbetween": 1376,
            "Come": 1377,
            "ject": 1378,
            "*B": 1379,
            "Ġdear": 1380,
            "Ġ.\\": 1381,
            "its": 1382,
            "Ġrest": 1383,
            "Ġwithout": 1384,
            "Ġready": 1385,
            "ason": 1386,
            "ats": 1387,
            "Ġca": 1388,
            "rist": 1389,
            "Ġfoot": 1390,
            ")\\": 1391,
            "Ġlooked": 1392,
            "ating": 1393,
            "Ġpict": 1394,
            "ics": 1395,
            "arl": 1396,
            "âĢĶ": 1397,
            "ĠWe": 1398,
            "ina": 1399,
            "orth": 1400,
            "All": 1401,
            "ife": 1402,
            "eth": 1403,
            "any": 1404,
            "Ġpret": 1405,
            "Ġperson": 1406,
            "ged": 1407,
            "eter": 1408,
            "Ġhalf": 1409,
            "?\\\"": 1410,
            "Ġhaving": 1411,
            "ries": 1412,
            "fect": 1413,
            "ĠAs": 1414,
            "Ġhappened": 1415,
            "ohn": 1416,
            "ĠWhat": 1417,
            "pped": 1418,
            "ines": 1419,
            "ames": 1420,
            "Ġwanted": 1421,
            "[MOT": 1422,
            "ĠEng": 1423,
            "cle": 1424,
            "Ġhigh": 1425,
            "less": 1426,
            "*GMA": 1427,
            "Ġdri": 1428,
            "der": 1429,
            "*C": 1430,
            "oice": 1431,
            "Ġmus": 1432,
            "Ġhaven": 1433,
            "aper": 1434,
            "ched": 1435,
            "Let": 1436,
            "most": 1437,
            "ale": 1438,
            "ĠThere": 1439,
            "Ġlater": 1440,
            "Ġinst": 1441,
            "Ġpop": 1442,
            "iet": 1443,
            "Ġdec": 1444,
            "Is": 1445,
            "St": 1446,
            "Ġtalking": 1447,
            "Ġmove": 1448,
            "Ġlar": 1449,
            "Ġknew": 1450,
            "Ġsort": 1451,
            "Ġair": 1452,
            "Ġtop": 1453,
            "rew": 1454,
            "unt": 1455,
            "ane": 1456,
            "sel": 1457,
            "Ġstory": 1458,
            "ĠNew": 1459,
            "Ġheart": 1460,
            "osed": 1461,
            "io": 1462,
            "Ġfollow": 1463,
            "Ġhor": 1464,
            "ma": 1465,
            "Ġans": 1466,
            "Ġalong": 1467,
            "Ġmatter": 1468,
            "ork": 1469,
            "Ġpretty": 1470,
            "*BRO": 1471,
            "ball": 1472,
            "Ġmaybe": 1473,
            "Ġwond": 1474,
            "cha": 1475,
            "by": 1476,
            "Ġcons": 1477,
            "dd": 1478,
            "Ġmaking": 1479,
            "ertain": 1480,
            "Not": 1481,
            "Ġgave": 1482,
            "ĠUnited": 1483,
            "Ġinter": 1484,
            "stand": 1485,
            "Ġagainst": 1486,
            "My": 1487,
            "Ġcut": 1488,
            "Ġanim": 1489,
            "Ġeverything": 1490,
            "Ġtable": 1491,
            "Ġboys": 1492,
            "ĠDaddy": 1493,
            "Ġdays": 1494,
            "ĠAmerican": 1495,
            "cial": 1496,
            "Ġlive": 1497,
            "Ġtra": 1498,
            "Ġhour": 1499,
            "Ġbreak": 1500,
            "vers": 1501,
            "ĠNo": 1502,
            "Ġdire": 1503,
            "sh": 1504,
            "uss": 1505,
            "ĠMrs": 1506,
            "bo": 1507,
            "Ġcity": 1508,
            "ither": 1509,
            "Than": 1510,
            "Ġalright": 1511,
            "Ġdrink": 1512,
            "Mm": 1513,
            "Ġid": 1514,
            "Ġbring": 1515,
            "ual": 1516,
            "part": 1517,
            "Okay": 1518,
            "cept": 1519,
            "ief": 1520,
            "Ġwasn": 1521,
            "ches": 1522,
            "ped": 1523,
            "[CHI": 1524,
            "Ġdied": 1525,
            "OU": 1526,
            "Ġinv": 1527,
            "\\\",": 1528,
            "ĠMom": 1529,
            "aut": 1530,
            "ully": 1531,
            "Ġblue": 1532,
            "ubl": 1533,
            "to": 1534,
            "ĠMiss": 1535,
            "ĠGod": 1536,
            "ER": 1537,
            "ĠYeah": 1538,
            "Ġmiss": 1539,
            "iness": 1540,
            "Ġnoise": 1541,
            "clud": 1542,
            "idd": 1543,
            "ĠCHI": 1544,
            "ised": 1545,
            "Ġsaying": 1546,
            "ern": 1547,
            "Ġass": 1548,
            "Ġadd": 1549,
            "Ġhell": 1550,
            "ĠInd": 1551,
            "Ġsy": 1552,
            "Ġaw": 1553,
            "Ġfamily": 1554,
            "Ġborn": 1555,
            "oint": 1556,
            "enty": 1557,
            "Ġcat": 1558,
            "ok": 1559,
            "Ġreturn": 1560,
            "fr": 1561,
            "oke": 1562,
            "Hey": 1563,
            "ters": 1564,
            "[p": 1565,
            "Ġwhole": 1566,
            "Ġblack": 1567,
            "ĠJohn": 1568,
            "ision": 1569,
            "Ġbelieve": 1570,
            "Ġsince": 1571,
            "br": 1572,
            "Ġactually": 1573,
            "uth": 1574,
            "Ġstarted": 1575,
            "Ġclose": 1576,
            "wards": 1577,
            "Ġcur": 1578,
            "Ġfood": 1579,
            "Ġste": 1580,
            "Ġhey": 1581,
            "Ġchair": 1582,
            "ced": 1583,
            "Ġwhite": 1584,
            "Ġdoll": 1585,
            "oud": 1586,
            "illy": 1587,
            "no": 1588,
            "Ġdel": 1589,
            "----": 1590,
            "Ġmoment": 1591,
            "Ġstud": 1592,
            "ants": 1593,
            "Ġsub": 1594,
            "ĠSp": 1595,
            "erest": 1596,
            "bably": 1597,
            "ax": 1598,
            "ĠSo": 1599,
            "aken": 1600,
            "but": 1601,
            "Ġlaugh": 1602,
            "Ġtown": 1603,
            "ular": 1604,
            "Ġswe": 1605,
            "Ġnear": 1606,
            "Ġtrying": 1607,
            "ery": 1608,
            "When": 1609,
            "Ġhot": 1610,
            "vern": 1611,
            "ĠFr": 1612,
            "ĠChrist": 1613,
            "aid": 1614,
            "Be": 1615,
            "hip": 1616,
            "Ġhair": 1617,
            "ĠZ": 1618,
            "Ġcent": 1619,
            "Ġpull": 1620,
            "Ġsong": 1621,
            "ote": 1622,
            "Ġalmost": 1623,
            "ready": 1624,
            "ĠCl": 1625,
            "ield": 1626,
            "Ġfloor": 1627,
            "Ġdro": 1628,
            "Ġland": 1629,
            "Ġwonder": 1630,
            "omas": 1631,
            "Ġfeet": 1632,
            "Ġcomes": 1633,
            "ted": 1634,
            "zz": 1635,
            "cess": 1636,
            "aj": 1637,
            "Ġeight": 1638,
            "||": 1639,
            "Ġsqu": 1640,
            "Ġgreen": 1641,
            "eb": 1642,
            "Ġbuild": 1643,
            "oes": 1644,
            "ustr": 1645,
            "Then": 1646,
            "orrow": 1647,
            "Ġgame": 1648,
            "ole": 1649,
            "Ġmeet": 1650,
            "Ġwouldn": 1651,
            "Ġteam": 1652,
            "read": 1653,
            "Ġfriends": 1654,
            "ĠBe": 1655,
            "Ġplaying": 1656,
            "Ġquest": 1657,
            "ined": 1658,
            "Ġtri": 1659,
            "Ġdisc": 1660,
            "Ġsir": 1661,
            "Ġbrother": 1662,
            "tend": 1663,
            "www": 1664,
            "ING": 1665,
            "aces": 1666,
            "ner": 1667,
            "Ġinterest": 1668,
            "ĠBl": 1669,
            "ocal": 1670,
            "ĠIs": 1671,
            "Ġbecame": 1672,
            "Er": 1673,
            "fter": 1674,
            "ony": 1675,
            "app": 1676,
            "Ġdraw": 1677,
            "ative": 1678,
            "Ġinf": 1679,
            "Ġbegan": 1680,
            "Ġwrong": 1681,
            "Ã©": 1682,
            "Ġten": 1683,
            "Ġrep": 1684,
            "Ġsil": 1685,
            "Ġunderstand": 1686,
            "ĠGer": 1687,
            "Ġimp": 1688,
            "Ġsign": 1689,
            "Ġalready": 1690,
            "ĠRe": 1691,
            "Ġposs": 1692,
            "Ġleg": 1693,
            "Ġbeh": 1694,
            "Ġpain": 1695,
            "ĠThen": 1696,
            "ï¿½ï¿½": 1697,
            "Ġmet": 1698,
            "Ġson": 1699,
            "ĠStates": 1700,
            "Where": 1701,
            "Ġcountry": 1702,
            "Ġsent": 1703,
            "ives": 1704,
            "Ġref": 1705,
            "Ġminute": 1706,
            "ĠThomas": 1707,
            "where": 1708,
            "undred": 1709,
            "Just": 1710,
            "Who": 1711,
            "Ġjob": 1712,
            "ying": 1713,
            "Ġgotta": 1714,
            "On": 1715,
            "Ġquick": 1716,
            "Ġpur": 1717,
            "ĠOh": 1718,
            "Ġeas": 1719,
            "ĠPr": 1720,
            "Ġguess": 1721,
            "Ġtimes": 1722,
            "ison": 1723,
            "Ġwoman": 1724,
            "key": 1725,
            "Ġkid": 1726,
            "Ġyell": 1727,
            "Ġbeaut": 1728,
            "elt": 1729,
            "Ġplayed": 1730,
            "ama": 1731,
            "Ġpay": 1732,
            "*N": 1733,
            "Ġpaper": 1734,
            "*FCH": 1735,
            "ues": 1736,
            "ple": 1737,
            "ages": 1738,
            "Ġprobably": 1739,
            "Ġinclud": 1740,
            "Ġgi": 1741,
            "Ġlost": 1742,
            "ipp": 1743,
            "ared": 1744,
            "Ġhappy": 1745,
            "ĠMOT": 1746,
            "ster": 1747,
            "Ġtre": 1748,
            "Ġfact": 1749,
            "ital": 1750,
            "Ġexc": 1751,
            "ities": 1752,
            "cted": 1753,
            "ently": 1754,
            "ots": 1755,
            "ouch": 1756,
            "Ġidea": 1757,
            "âĻª": 1758,
            "ize": 1759,
            "end": 1760,
            "*L": 1761,
            "Ġspeak": 1762,
            "Ġpicture": 1763,
            "Ġfront": 1764,
            "ape": 1765,
            "Ġlead": 1766,
            "Ġgirls": 1767,
            "-s": 1768,
            "ĠThat": 1769,
            "Ġcolor": 1770,
            "ik": 1771,
            "Ġbehind": 1772,
            "ene": 1773,
            "Ġfull": 1774,
            "ON": 1775,
            "ises": 1776,
            "Ġhundred": 1777,
            "Ġpoor": 1778,
            "ivers": 1779,
            "Ġcook": 1780,
            "ĠBob": 1781,
            "olog": 1782,
            "Ġfine": 1783,
            "Ġmakes": 1784,
            "Ġlisten": 1785,
            "Look": 1786,
            "*A": 1787,
            "Ġaren": 1788,
            "Ġcontin": 1789,
            "Ġfight": 1790,
            "Ġvoice": 1791,
            "Ġbrought": 1792,
            "Ġsat": 1793,
            "Ġcoll": 1794,
            "airs": 1795,
            "Ġmusic": 1796,
            "Ġturned": 1797,
            "Ġduring": 1798,
            "Ġstuff": 1799,
            ".\\\"": 1800,
            "Ġstick": 1801,
            "Ġhum": 1802,
            "ring": 1803,
            "Ġdead": 1804,
            "EN": 1805,
            "Ġran": 1806,
            "Ġseemed": 1807,
            "ĠAll": 1808,
            "itting": 1809,
            "RA": 1810,
            "Ġcertain": 1811,
            "Ġmine": 1812,
            "ober": 1813,
            "Ġmouth": 1814,
            "wer": 1815,
            "Ġmeans": 1816,
            "Are": 1817,
            "ury": 1818,
            "\\\".": 1819,
            "Ġoutside": 1820,
            "Ġplan": 1821,
            "Ġhope": 1822,
            "Ġparty": 1823,
            "Ġmovie": 1824,
            "ific": 1825,
            "tern": 1826,
            "ey": 1827,
            "for": 1828,
            "Ġshort": 1829,
            "cy": 1830,
            "haps": 1831,
            "unch": 1832,
            "ĠAt": 1833,
            "Ġcup": 1834,
            "Ġexpl": 1835,
            "Ġinc": 1836,
            "ica": 1837,
            "lish": 1838,
            "Ġweek": 1839,
            "ĠTHE": 1840,
            "Ġmonth": 1841,
            "aur": 1842,
            "utes": 1843,
            "Ġsun": 1844,
            "Ġpu": 1845,
            "Ġpiece": 1846,
            "ete": 1847,
            "Ġwants": 1848,
            "ense": 1849,
            "room": 1850,
            "Ġproble": 1851,
            "ided": 1852,
            "ĠJack": 1853,
            "ured": 1854,
            "Ġgener": 1855,
            "Ġlear": 1856,
            "Ġable": 1857,
            "ese": 1858,
            "ĠKing": 1859,
            "Ġconf": 1860,
            "ĠHow": 1861,
            "Ġhorse": 1862,
            "Ġcompl": 1863,
            "iful": 1864,
            "ouble": 1865,
            "Ġoften": 1866,
            "Ġtaken": 1867,
            "Ġones": 1868,
            "ert": 1869,
            "Ġbar": 1870,
            "ĠSc": 1871,
            "Ġoffic": 1872,
            "ards": 1873,
            "Ġbird": 1874,
            "Ġsim": 1875,
            "Ġcouldn": 1876,
            "Ġrecord": 1877,
            "ned": 1878,
            "Ġprom": 1879,
            "Ġrepl": 1880,
            "Right": 1881,
            "Ġyourself": 1882,
            "Ġes": 1883,
            "Ġfro": 1884,
            "Ġcry": 1885,
            "Ġdeath": 1886,
            "els": 1887,
            "Ġfore": 1888,
            "Th": 1889,
            "Ġrock": 1890,
            "ides": 1891,
            "ĠTom": 1892,
            "Did": 1893,
            "Ġi": 1894,
            "Ġform": 1895,
            "head": 1896,
            ").": 1897,
            "Ġclot": 1898,
            "Ġbear": 1899,
            "Ġpen": 1900,
            "Ġwords": 1901,
            "fully": 1902,
            "inner": 1903,
            "Ġlate": 1904,
            "ex": 1905,
            "-b": 1906,
            "Ġprod": 1907,
            "ec": 1908,
            "Ġimport": 1909,
            "iew": 1910,
            "ments": 1911,
            "iam": 1912,
            "As": 1913,
            "Ġstre": 1914,
            "ĠCom": 1915,
            "irth": 1916,
            "ĠQ": 1917,
            "Thank": 1918,
            "Ġdress": 1919,
            "Ġsister": 1920,
            "*NAN": 1921,
            "Ġtaking": 1922,
            "ĠHar": 1923,
            "Ġlarge": 1924,
            "Ġless": 1925,
            "ones": 1926,
            "ized": 1927,
            "ask": 1928,
            "Ġvis": 1929,
            "not": 1930,
            "Good": 1931,
            "OR": 1932,
            "Ġmyself": 1933,
            "selves": 1934,
            "Ġmag": 1935,
            "ĠGerman": 1936,
            "used": 1937,
            "Ġinside": 1938,
            "Ġed": 1939,
            "Ġdark": 1940,
            "Ġminutes": 1941,
            "Ġ,": 1942,
            "ĠUh": 1943,
            "Ġev": 1944,
            "Ġmed": 1945,
            "rap": 1946,
            "-d": 1947,
            "Ġeng": 1948,
            "Ġline": 1949,
            "ĠMay": 1950,
            "*D": 1951,
            "ze": 1952,
            "-l": 1953,
            "Ġtill": 1954,
            "Ġgrand": 1955,
            "LD": 1956,
            "ĠHis": 1957,
            "Ġcold": 1958,
            "Ġbusiness": 1959,
            "Ġfelt": 1960,
            "Ġlady": 1961,
            "ald": 1962,
            "umb": 1963,
            "Ġtree": 1964,
            "aim": 1965,
            "Ġrather": 1966,
            "Ġwife": 1967,
            "Ġsometimes": 1968,
            "Ġyellow": 1969,
            "Ġroad": 1970,
            "ention": 1971,
            "ider": 1972,
            "Ġtele": 1973,
            "Ġmain": 1974,
            "bit": 1975,
            "Ġtoys": 1976,
            "ming": 1977,
            "arent": 1978,
            "gan": 1979,
            "ney": 1980,
            "Ġage": 1981,
            "oub": 1982,
            "ĠChi": 1983,
            "Ġreac": 1984,
            "Ġcir": 1985,
            "ĠâĢĵ": 1986,
            "Ġrele": 1987,
            "bed": 1988,
            "Ġart": 1989,
            "Ġbag": 1990,
            "Can": 1991,
            "Ġhurt": 1992,
            "amed": 1993,
            "men": 1994,
            "ĠWhen": 1995,
            "For": 1996,
            "Ġguy": 1997,
            "son": 1998,
            "Ġext": 1999,
            "Ġmommy": 2000,
            "aughter": 2001,
            "!\\\"\\": 2002,
            "Ġfunny": 2003,
            "Ġgiven": 2004,
            "Ġsweet": 2005,
            "ead": 2006,
            "Ġtwenty": 2007,
            "Ġcase": 2008,
            "DS": 2009,
            "ĠFor": 2010,
            "Ġpresent": 2011,
            "Ġwood": 2012,
            "irty": 2013,
            "ists": 2014,
            "Ġbirth": 2015,
            "Ġbeautiful": 2016,
            "Ġmilk": 2017,
            "Ġstrong": 2018,
            "Ġpage": 2019,
            "ator": 2020,
            "Ġboat": 2021,
            "owing": 2022,
            "Ġstate": 2023,
            "Ġwear": 2024,
            "Ġeither": 2025,
            "Al": 2026,
            "Ġbody": 2027,
            "Ġago": 2028,
            "ham": 2029,
            "rench": 2030,
            "Ġserv": 2031,
            "gin": 2032,
            "Ġchange": 2033,
            "Ġmess": 2034,
            "kes": 2035,
            "Ġsomeone": 2036,
            "Ġins": 2037,
            "Ġpower": 2038,
            "Go": 2039,
            "gy": 2040,
            "ĠMommy": 2041,
            "Ġmot": 2042,
            "ĠEnglish": 2043,
            "Ġground": 2044,
            "rest": 2045,
            "[s": 2046,
            "Ġalone": 2047,
            "Ġpast": 2048,
            "Ġothers": 2049,
            "*DAD": 2050,
            "Ġseven": 2051,
            "ĠOn": 2052,
            "Ġmark": 2053,
            "Ġjump": 2054,
            "ric": 2055,
            "Ġocc": 2056,
            "Ġgets": 2057,
            "ara": 2058,
            "ising": 2059,
            "Ġfif": 2060,
            "Ġfast": 2061,
            "Ġtrue": 2062,
            "LL": 2063,
            "iously": 2064,
            "ians": 2065,
            "born": 2066,
            "Mr": 2067,
            "Ġclass": 2068,
            "Ġacross": 2069,
            "UR": 2070,
            "Ġimportant": 2071,
            "ĠCount": 2072,
            "range": 2073,
            "morrow": 2074,
            "Ġlay": 2075,
            "Ġuhhuh": 2076,
            "ffe": 2077,
            "ĠJan": 2078,
            "Ġem": 2079,
            "Ġfish": 2080,
            "Ġpri": 2081,
            "Ġhello": 2082,
            "Ġtea": 2083,
            "iff": 2084,
            "Ġfair": 2085,
            "icha": 2086,
            "Ġleast": 2087,
            "Ġpubl": 2088,
            "ained": 2089,
            "ĠCar": 2090,
            "cri": 2091,
            "Ġtrans": 2092,
            "Ġgovern": 2093,
            "ken": 2094,
            "itc": 2095,
            "Ġwish": 2096,
            "Ġfav": 2097,
            "idge": 2098,
            "ops": 2099,
            "Ġcried": 2100,
            "eed": 2101,
            "iving": 2102,
            "ĠIf": 2103,
            "-c": 2104,
            "Ġclean": 2105,
            "atur": 2106,
            "ĠFl": 2107,
            "Ġanimals": 2108,
            "Ġbuy": 2109,
            "Ġprov": 2110,
            "Ġquestion": 2111,
            "Ġworking": 2112,
            "Ġgun": 2113,
            "-huh": 2114,
            "Ġearly": 2115,
            "Ġsever": 2116,
            "Ġorder": 2117,
            "Ġsea": 2118,
            "eng": 2119,
            "arth": 2120,
            "Ġfing": 2121,
            "ature": 2122,
            "Ġcreat": 2123,
            "Ġdeal": 2124,
            "enn": 2125,
            "ley": 2126,
            "-f": 2127,
            "Ġz": 2128,
            "Ġarea": 2129,
            "Ġadv": 2130,
            "ened": 2131,
            "Ġfinished": 2132,
            "Ġdaddy": 2133,
            "ĠWill": 2134,
            "Ġstar": 2135,
            "ĠPh": 2136,
            "Ġwomen": 2137,
            "ately": 2138,
            "Ġty": 2139,
            "*J": 2140,
            "ety": 2141,
            "Ġhon": 2142,
            "*MAR": 2143,
            "ĠâĻª": 2144,
            "Ġforg": 2145,
            "Ġseveral": 2146,
            "ĠFrance": 2147,
            "ĠWell": 2148,
            "ution": 2149,
            "Ġgroup": 2150,
            "iding": 2151,
            "ĠGe": 2152,
            "ĠGrand": 2153,
            "ĠBrit": 2154,
            "Ġwall": 2155,
            "iting": 2156,
            "Ġherself": 2157,
            "rence": 2158,
            "Ġnews": 2159,
            "Ġguys": 2160,
            "ĠâĮ": 2161,
            "]?\\": 2162,
            "At": 2163,
            "Ġsomebody": 2164,
            "Ġdar": 2165,
            "Ġfuck": 2166,
            "Ġroll": 2167,
            "ummer": 2168,
            "Ġhung": 2169,
            "ges": 2170,
            "Ġice": 2171,
            "inging": 2172,
            "ism": 2173,
            "Ġlaw": 2174,
            "ana": 2175,
            "ains": 2176,
            "Ġbur": 2177,
            "Ġrece": 2178,
            "-t": 2179,
            "Ġtried": 2180,
            "Your": 2181,
            "fort": 2182,
            "ĠAd": 2183,
            "Ġwin": 2184,
            "isc": 2185,
            "âĮ": 2186,
            "Ġpat": 2187,
            "Get": 2188,
            "Ġda": 2189,
            "ilt": 2190,
            "Ġegg": 2191,
            "Ġlo": 2192,
            "Ġdinner": 2193,
            "Ġblood": 2194,
            "Ġpos": 2195,
            "Ġ-": 2196,
            "*PAT": 2197,
            "erv": 2198,
            "An": 2199,
            "[t": 2200,
            "Ġtoy": 2201,
            "?âĢĿ\\": 2202,
            "stem": 2203,
            "ept": 2204,
            "II": 2205,
            "ering": 2206,
            "Ġhit": 2207,
            "overed": 2208,
            "Ġfig": 2209,
            "ĠHer": 2210,
            "Ġprot": 2211,
            "Ġfree": 2212,
            "orld": 2213,
            "ĠEd": 2214,
            "ued": 2215,
            "owed": 2216,
            "uary": 2217,
            "eared": 2218,
            "uly": 2219,
            "icks": 2220,
            "ices": 2221,
            "Ġexpect": 2222,
            "ĠCan": 2223,
            "Ġcamp": 2224,
            "Ġglad": 2225,
            "Ġtruck": 2226,
            "Ġthinking": 2227,
            "aced": 2228,
            "May": 2229,
            "Ġkilled": 2230,
            "Ġsold": 2231,
            "Ġtakes": 2232,
            "ls": 2233,
            "acher": 2234,
            "Ġwrite": 2235,
            "Ġreason": 2236,
            "Ġjo": 2237,
            "rop": 2238,
            "%int": 2239,
            "raz": 2240,
            "Ġpot": 2241,
            "ĠYes": 2242,
            "Ġcompany": 2243,
            "Ġexp": 2244,
            "[m": 2245,
            "Ġopp": 2246,
            "RE": 2247,
            "Ġquiet": 2248,
            "ĠChar": 2249,
            "att": 2250,
            "Ġpolit": 2251,
            "irt": 2252,
            "OI": 2253,
            "oth": 2254,
            "Ġear": 2255,
            "Ġsitting": 2256,
            "ĠSh": 2257,
            "iter": 2258,
            "oof": 2259,
            "Ġmod": 2260,
            "urch": 2261,
            "Here": 2262,
            "Ġamong": 2263,
            "Ġmill": 2264,
            "ousand": 2265,
            "Ġheld": 2266,
            "angu": 2267,
            "Ġcarry": 2268,
            "Ġnose": 2269,
            "raid": 2270,
            "apan": 2271,
            "rict": 2272,
            "Ġpartic": 2273,
            "osp": 2274,
            "Ġhi": 2275,
            "Ġcorn": 2276,
            "ounds": 2277,
            "ived": 2278,
            "Ġdepart": 2279,
            "unk": 2280,
            "ĠFrench": 2281,
            "Ġju": 2282,
            "Ġbecome": 2283,
            "Ġfootball": 2284,
            "Ġcow": 2285,
            "Sh": 2286,
            "Ġvill": 2287,
            "Ġkept": 2288,
            "Ġbooks": 2289,
            "ĠIN": 2290,
            "Ġwindow": 2291,
            "Ġsal": 2292,
            "Ġsoft": 2293,
            "ello": 2294,
            "Ġdef": 2295,
            "RI": 2296,
            "Ġra": 2297,
            "olly": 2298,
            "Ġrunning": 2299,
            "Ġfly": 2300,
            "Ġliving": 2301,
            "Ġstep": 2302,
            "One": 2303,
            "lease": 2304,
            "Ġstra": 2305,
            "ĠYork": 2306,
            "ĠBar": 2307,
            "Ġconc": 2308,
            "Ġcor": 2309,
            "har": 2310,
            "iversity": 2311,
            "Ġchance": 2312,
            "Ġphone": 2313,
            "!âĢĿ": 2314,
            "Ġadm": 2315,
            "âĢľI": 2316,
            "Ġarm": 2317,
            "Ġprof": 2318,
            "Ġsend": 2319,
            "Ġfix": 2320,
            "Ġlived": 2321,
            "Ġpig": 2322,
            "UN": 2323,
            "ford": 2324,
            "Ġstood": 2325,
            "Ġfur": 2326,
            "Ġpar": 2327,
            "Ġtouch": 2328,
            "ium": 2329,
            "Ġsurpr": 2330,
            "Ġusually": 2331,
            "Ġya": 2332,
            "Ġtrouble": 2333,
            "cil": 2334,
            "ĠWar": 2335,
            "Ġthousand": 2336,
            "mon": 2337,
            "Ġcatch": 2338,
            "Ġfrog": 2339,
            "arch": 2340,
            "*LOI": 2341,
            "Ġbirthday": 2342,
            "ĠLe": 2343,
            "Ġdoctor": 2344,
            "*CDS": 2345,
            "ĠCounty": 2346,
            "Ġband": 2347,
            "Ġbath": 2348,
            "inning": 2349,
            "Ġcond": 2350,
            "wered": 2351,
            "Ġresp": 2352,
            "Ġnine": 2353,
            "itten": 2354,
            "alth": 2355,
            "Ġship": 2356,
            "you": 2357,
            "TER": 2358,
            "Ġlad": 2359,
            "ically": 2360,
            "dden": 2361,
            "Ġkiss": 2362,
            "Ġsand": 2363,
            "Ġchoo": 2364,
            "ĠJapan": 2365,
            "Ġletter": 2366,
            "ĠX": 2367,
            "anger": 2368,
            "Ġshop": 2369,
            "Ġdarling": 2370,
            "Ġattack": 2371,
            "*AD": 2372,
            "ange": 2373,
            "teen": 2374,
            "band": 2375,
            "ox": 2376,
            "ping": 2377,
            "Ġwat": 2378,
            "Ġheav": 2379,
            "Ġdad": 2380,
            "ears": 2381,
            "Ġdat": 2382,
            "Ah": 2383,
            "ĠJanuary": 2384,
            "Ġfil": 2385,
            "Ġanswer": 2386,
            "ession": 2387,
            "ĠWorld": 2388,
            "Ġclim": 2389,
            "ĠCap": 2390,
            "Ġreplied": 2391,
            "ĠDo": 2392,
            "Ġlov": 2393,
            "Ġobject": 2394,
            "Ġsystem": 2395,
            "ode": 2396,
            "Ġsudden": 2397,
            "ĠJune": 2398,
            "Ġafraid": 2399,
            "Ġanswered": 2400,
            "Ġproblem": 2401,
            "Ġlots": 2402,
            "iddle": 2403,
            "âĢĻll": 2404,
            "ler": 2405,
            "Ġcross": 2406,
            "To": 2407,
            "aul": 2408,
            "ĠMarch": 2409,
            "Ġmer": 2410,
            "bum": 2411,
            "bs": 2412,
            "Ġblock": 2413,
            "ĠCon": 2414,
            "ĠPro": 2415,
            "mas": 2416,
            "urs": 2417,
            "ĠJoe": 2418,
            "ement": 2419,
            "Ġthrow": 2420,
            "ĠâĻª\\": 2421,
            "owers": 2422,
            "ĠEur": 2423,
            "Ġord": 2424,
            "[c": 2425,
            "Ġmount": 2426,
            "Ġnamed": 2427,
            "Ġnorth": 2428,
            "oman": 2429,
            "Ġcheck": 2430,
            "Ġclothes": 2431,
            "uts": 2432,
            "ĠDon": 2433,
            "Ġhours": 2434,
            "over": 2435,
            "Ġhist": 2436,
            "Ġann": 2437,
            "*ADU": 2438,
            "?âĢĿ": 2439,
            "*GRA": 2440,
            "aint": 2441,
            "Ġperhaps": 2442,
            "Ġclear": 2443,
            "Ġtired": 2444,
            "Ġpoints": 2445,
            "Ġthemselves": 2446,
            "ude": 2447,
            "Ġeating": 2448,
            "Ġexper": 2449,
            "Ġking": 2450,
            "ility": 2451,
            "Ġtomorrow": 2452,
            "Ġtem": 2453,
            "ract": 2454,
            "Ġlangu": 2455,
            "Ġdaughter": 2456,
            "ugust": 2457,
            "pril": 2458,
            "Ġyours": 2459,
            "Ġspecial": 2460,
            "though": 2461,
            "entle": 2462,
            "ĠEl": 2463,
            "ient": 2464,
            "Ġmarried": 2465,
            "itch": 2466,
            "Ġlow": 2467,
            "Ġpress": 2468,
            "Ġdiff": 2469,
            "Ġreport": 2470,
            "Ġreleased": 2471,
            "Ġpost": 2472,
            "ek": 2473,
            "ored": 2474,
            "ality": 2475,
            "Ġeverybody": 2476,
            "Ġseems": 2477,
            "Ġrain": 2478,
            "asure": 2479,
            "lly": 2480,
            "ĠJim": 2481,
            "wo": 2482,
            "Ġdra": 2483,
            "vision": 2484,
            "Ġeye": 2485,
            "Ġhang": 2486,
            "ajor": 2487,
            "orge": 2488,
            "Erm": 2489,
            "Ġshoes": 2490,
            "Ġseries": 2491,
            "Ġsuppose": 2492,
            "Ġstraight": 2493,
            "ays": 2494,
            "ean": 2495,
            "\\\".\\": 2496,
            "Ġhors": 2497,
            "velop": 2498,
            "ott": 2499,
            "net": 2500,
            "amer": 2501,
            "hant": 2502,
            "uit": 2503,
            "Ġill": 2504,
            "Ġkids": 2505,
            "Ġknows": 2506,
            "Ġeasy": 2507,
            "ories": 2508,
            "Ġduck": 2509,
            "Ġhus": 2510,
            "gue": 2511,
            "Ġfit": 2512,
            "Ġlives": 2513,
            "Ġwithin": 2514,
            "Ġalbum": 2515,
            "Ġhop": 2516,
            "Ġsca": 2517,
            "Ġsounds": 2518,
            "AP": 2519,
            "Ġjuice": 2520,
            "Ġlovely": 2521,
            "Ġdream": 2522,
            "ron": 2523,
            "Ġhar": 2524,
            "Ġdeep": 2525,
            "Ġputting": 2526,
            "Ġpassed": 2527,
            "look": 2528,
            "ĠDav": 2529,
            "AL": 2530,
            "ĠPl": 2531,
            "Ġwhether": 2532,
            "Ġspec": 2533,
            "ctober": 2534,
            "Ġmonths": 2535,
            "Ġgovernment": 2536,
            "Ġ?\\": 2537,
            "urd": 2538,
            "Ġmoved": 2539,
            "Ġknock": 2540,
            "unic": 2541,
            "Ġcharac": 2542,
            "ĠPe": 2543,
            "actly": 2544,
            "Ġgold": 2545,
            "rol": 2546,
            "Ġcoup": 2547,
            "Ġcareful": 2548,
            "Because": 2549,
            "arden": 2550,
            "Ġsail": 2551,
            "ager": 2552,
            "Ġexcl": 2553,
            "ĠBritish": 2554,
            "ĠSouth": 2555,
            "aged": 2556,
            "par": 2557,
            "Ġworked": 2558,
            "Ġpossible": 2559,
            "yl": 2560,
            "que": 2561,
            "Ġton": 2562,
            "Ġevent": 2563,
            "Ġnoises": 2564,
            "Ġchick": 2565,
            "ai": 2566,
            "Ġfield": 2567,
            "ĠMum": 2568,
            "Please": 2569,
            "Ġproper": 2570,
            "cient": 2571,
            "Ġdiv": 2572,
            "ĠSw": 2573,
            "Ġwaiting": 2574,
            "Ġsucc": 2575,
            "Ġputs": 2576,
            "fast": 2577,
            "ĠAugust": 2578,
            "Ġbott": 2579,
            "Ġslow": 2580,
            "ances": 2581,
            "rod": 2582,
            "Ġcannot": 2583,
            "ulation": 2584,
            "ĠHel": 2585,
            "amb": 2586,
            "aimed": 2587,
            "ovember": 2588,
            "Some": 2589,
            "stairs": 2590,
            "Ġdoub": 2591,
            "Ġforget": 2592,
            "Ġhowever": 2593,
            "friend": 2594,
            "Ġshot": 2595,
            "NA": 2596,
            "Ã¡": 2597,
            "CHILD": 2598,
            "Ġfa": 2599,
            "Ġsingle": 2600,
            "ĠMan": 2601,
            "Ġpretend": 2602,
            "Ġforward": 2603,
            "Ġconst": 2604,
            "eptember": 2605,
            "Ġbroken": 2606,
            "ĠAb": 2607,
            "Ġtoward": 2608,
            "ĠTr": 2609,
            ".cha": 2610,
            "Ġarms": 2611,
            "hern": 2612,
            "/CHILD": 2613,
            "Ġchildes": 2614,
            "/CHILDES": 2615,
            "che": 2616,
            "Ġdie": 2617,
            "Ġdiffic": 2618,
            "ĠPhil": 2619,
            "unny": 2620,
            "cember": 2621,
            "Ġdanger": 2622,
            "-p": 2623,
            "-w": 2624,
            "Ġhusband": 2625,
            "com": 2626,
            "gas": 2627,
            "reed": 2628,
            "Ġreached": 2629,
            "Ġsafe": 2630,
            "Ġabove": 2631,
            "Ġforgot": 2632,
            "Ġtowards": 2633,
            "joy": 2634,
            "Ġriver": 2635,
            "ĠSam": 2636,
            "let": 2637,
            "ging": 2638,
            "Ġbreat": 2639,
            "ĠCol": 2640,
            "come": 2641,
            "ffect": 2642,
            "aser": 2643,
            "ĠNorth": 2644,
            "Ġmember": 2645,
            "more": 2646,
            "Ġring": 2647,
            "rigin": 2648,
            "Ġquickly": 2649,
            "Ġregion": 2650,
            "Ġsilly": 2651,
            "ĠGo": 2652,
            "Have": 2653,
            "ĠOctober": 2654,
            "een": 2655,
            "Every": 2656,
            "Ġgentle": 2657,
            "Ġboard": 2658,
            "ĠFrank": 2659,
            "Ġvar": 2660,
            "ĠEurope": 2661,
            "Ġcouple": 2662,
            "Ġappro": 2663,
            "ĠPer": 2664,
            "ĠOne": 2665,
            "Ġgrow": 2666,
            "IT": 2667,
            "Ġgra": 2668,
            "ĠApril": 2669,
            "ral": 2670,
            "âĢĺ": 2671,
            "Ġwow": 2672,
            "Ġsight": 2673,
            "Ġpolice": 2674,
            "ruary": 2675,
            "Ġshut": 2676,
            "ining": 2677,
            "ebruary": 2678,
            "Ġ*": 2679,
            "ada": 2680,
            "Ġfavor": 2681,
            "ĠBen": 2682,
            "udd": 2683,
            "Ġnational": 2684,
            "Ġsol": 2685,
            "Ġorange": 2686,
            "Ġwhose": 2687,
            "Ġdi": 2688,
            "Ex": 2689,
            "Ġluck": 2690,
            "Ġlonger": 2691,
            "Ġseat": 2692,
            "mand": 2693,
            "Ġcaught": 2694,
            "ardon": 2695,
            "ĠNow": 2696,
            "ĠEngland": 2697,
            "ris": 2698,
            "Ġain": 2699,
            "gram": 2700,
            "Ġnearly": 2701,
            "ĠNovember": 2702,
            "Ġla": 2703,
            "Ġve": 2704,
            "Ġreturned": 2705,
            "Ġelect": 2706,
            "Ġdrive": 2707,
            "ior": 2708,
            "Ġseem": 2709,
            "phone": 2710,
            "Ġbuilding": 2711,
            "*K": 2712,
            "ĠJuly": 2713,
            "ked": 2714,
            "makes": 2715,
            "ience": 2716,
            "Ġsnow": 2717,
            "Ġdet": 2718,
            "Ġneeds": 2719,
            "Ġthird": 2720,
            "lex": 2721,
            "Ġcool": 2722,
            "Ġanyway": 2723,
            "--\\": 2724,
            "Ġglass": 2725,
            "Ġequ": 2726,
            "attle": 2727,
            "ĠSeptember": 2728,
            "rom": 2729,
            "Ġshar": 2730,
            "Ġsick": 2731,
            "Ġcommon": 2732,
            "Ġmist": 2733,
            "ĠCal": 2734,
            "Ġabs": 2735,
            "Ġshout": 2736,
            "Ġahead": 2737,
            "yn": 2738,
            "Ġcos": 2739,
            "itchen": 2740,
            "ĠDecember": 2741,
            "Ġdam": 2742,
            "Ġclos": 2743,
            "Ġdest": 2744,
            "Ġworry": 2745,
            "Ġfat": 2746,
            "Ġtreat": 2747,
            "Ġarri": 2748,
            "Ġengine": 2749,
            "Ġesc": 2750,
            "ĠPar": 2751,
            "Ġdepartment": 2752,
            "Ġcray": 2753,
            "Ġfeeling": 2754,
            "ĠAfter": 2755,
            "Ġoffice": 2756,
            "Ġcover": 2757,
            "gest": 2758,
            "ĠChristmas": 2759,
            "Ġformer": 2760,
            "eal": 2761,
            "vocal": 2762,
            "ele": 2763,
            "Ġvisit": 2764,
            "Ġeffect": 2765,
            "Ġstation": 2766,
            "Ġoper": 2767,
            "Ġfill": 2768,
            "Ġtrees": 2769,
            "AS": 2770,
            "Ġevening": 2771,
            "Ġtelevision": 2772,
            "Ġtick": 2773,
            "Ġcause": 2774,
            "rat": 2775,
            "ĠPres": 2776,
            "terday": 2777,
            "Ġpupp": 2778,
            "Ġstanding": 2779,
            "Ġplaces": 2780,
            "Ġtonight": 2781,
            "ggest": 2782,
            "Ġparent": 2783,
            "Ġwhatever": 2784,
            "Ġlie": 2785,
            "\\\"\\": 2786,
            "uced": 2787,
            "Ġhungry": 2788,
            "ĠMc": 2789,
            "ĠFebruary": 2790,
            "Ġwarm": 2791,
            "Ġbroke": 2792,
            "Ġcake": 2793,
            "Ġbye": 2794,
            "ĠNin": 2795,
            "ample": 2796,
            "Ġcirc": 2797,
            "Ġsuccess": 2798,
            "Ġbow": 2799,
            "Ġpush": 2800,
            "Ġkitchen": 2801,
            "Ġmillion": 2802,
            "Ġdevelop": 2803,
            "iny": 2804,
            "Ġtelling": 2805,
            "Ġhuman": 2806,
            "Ġfear": 2807,
            "Ġsuggest": 2808,
            "ĠTo": 2809,
            "Ġshoot": 2810,
            "Ġclub": 2811,
            "ondon": 2812,
            "llustr": 2813,
            "Ġstat": 2814,
            "Ġinstead": 2815,
            "fer": 2816,
            "Ġstopped": 2817,
            "Ġstri": 2818,
            "With": 2819,
            "ĠMary": 2820,
            "After": 2821,
            "ĠMy": 2822,
            "Ġenjoy": 2823,
            "ĠPeter": 2824,
            "Ġcal": 2825,
            "Ġplayer": 2826,
            "Ġtape": 2827,
            "Ġopened": 2828,
            "Of": 2829,
            "emy": 2830,
            "ien": 2831,
            "rible": 2832,
            "what": 2833,
            "Ġval": 2834,
            "Ġride": 2835,
            "Ġbreakfast": 2836,
            "ĠYOU": 2837,
            "Ġchanged": 2838,
            "Ġbuilt": 2839,
            "ĠUniversity": 2840,
            "ĠMin": 2841,
            "noon": 2842,
            "ĠCaptain": 2843,
            "Maybe": 2844,
            "Ġview": 2845,
            "Ġvillage": 2846,
            "Ġbread": 2847,
            "ips": 2848,
            "ĠSte": 2849,
            "LE": 2850,
            "Ġwild": 2851,
            "Ġswim": 2852,
            "omb": 2853,
            "ns": 2854,
            "Ġteacher": 2855,
            "Hello": 2856,
            "oops": 2857,
            "ĠDr": 2858,
            "'\\": 2859,
            "Ġbes": 2860,
            "Ġmeant": 2861,
            "Ġsuper": 2862,
            "Ġled": 2863,
            "con": 2864,
            "ills": 2865,
            "Ġisland": 2866,
            "ĠFraser": 2867,
            "Ġorgan": 2868,
            "Ġfollowed": 2869,
            "Ġnin": 2870,
            "Ġbutter": 2871,
            "ffic": 2872,
            "hile": 2873,
            "uct": 2874,
            "Ġest": 2875,
            "Ġwhom": 2876,
            "ause": 2877,
            "Ġpublic": 2878,
            "Ġindeed": 2879,
            "Ġsupposed": 2880,
            "Ġwhis": 2881,
            "uk": 2882,
            "Ġorigin": 2883,
            "Ġstrange": 2884,
            "Ġdisapp": 2885,
            "ified": 2886,
            "mm": 2887,
            "Ġsave": 2888,
            "Any": 2889,
            "Ġcost": 2890,
            "ology": 2891,
            "Ġtest": 2892,
            "Ġsupport": 2893,
            "ustral": 2894,
            "ror": 2895,
            "go": 2896,
            "Ġdecided": 2897,
            "Ġow": 2898,
            "Ġpieces": 2899,
            "ĠGu": 2900,
            "Ġdirect": 2901,
            "that": 2902,
            "uce": 2903,
            "Ġcareer": 2904,
            "Ġturns": 2905,
            "sc": 2906,
            "mbers": 2907,
            "Ġyesterday": 2908,
            "Ġprison": 2909,
            "Ġstore": 2910,
            "Ġbottom": 2911,
            "Ġwritten": 2912,
            "unity": 2913,
            "ĠLondon": 2914,
            "Ġseason": 2915,
            "Ġbright": 2916,
            "Ġheavy": 2917,
            "ĠMa": 2918,
            "cially": 2919,
            "well": 2920,
            "reen": 2921,
            "Ġgarden": 2922,
            "omin": 2923,
            "Ġanyone": 2924,
            "Ġtrack": 2925,
            "Ġcre": 2926,
            "Ġeh": 2927,
            "ĠWh": 2928,
            "ceed": 2929,
            "ift": 2930,
            "Ġsmil": 2931,
            "Ġmiddle": 2932,
            "bles": 2933,
            "Ġmis": 2934,
            "Ġfellow": 2935,
            "ospital": 2936,
            "Ġban": 2937,
            "ĠSha": 2938,
            "Ġafternoon": 2939,
            "Ġadded": 2940,
            "Ġperfect": 2941,
            "Ġav": 2942,
            "Ġlegs": 2943,
            "ĠHelen": 2944,
            "Ġut": 2945,
            "Ġir": 2946,
            "ĠItal": 2947,
            "Ġbrown": 2948,
            "Ġpark": 2949,
            "Ġexactly": 2950,
            "[I": 2951,
            "uel": 2952,
            "Ġcommand": 2953,
            "Ġang": 2954,
            "ĠCarl": 2955,
            "Ġusing": 2956,
            "Ch": 2957,
            "Ġstuck": 2958,
            "vol": 2959,
            "Ġfollowing": 2960,
            "Ġmiles": 2961,
            "Ġexcept": 2962,
            "ĠDan": 2963,
            "Ġpack": 2964,
            "bor": 2965,
            "Ġposition": 2966,
            "ĠSome": 2967,
            "[point": 2968,
            "--------": 2969,
            "ĠTO": 2970,
            "ases": 2971,
            "ushed": 2972,
            "Ġworks": 2973,
            "Ġru": 2974,
            "Ġrequ": 2975,
            "idence": 2976,
            "ray": 2977,
            "IC": 2978,
            "ales": 2979,
            ").\\": 2980,
            "empt": 2981,
            "Ġneck": 2982,
            "Ġdecl": 2983,
            "Wh": 2984,
            "gar": 2985,
            "Ġweeks": 2986,
            "Ġrad": 2987,
            "ĠAustral": 2988,
            "ĠMart": 2989,
            "oul": 2990,
            "gen": 2991,
            "Ġfarm": 2992,
            "Ġhappens": 2993,
            "ffee": 2994,
            "co": 2995,
            "Ġbought": 2996,
            "ĠPat": 2997,
            "-m": 2998,
            "Ġprotect": 2999,
            "Ġlau": 3000,
            "Ġquar": 3001,
            "ĠCity": 3002,
            "Ġappear": 3003,
            "Ġhole": 3004,
            "ician": 3005,
            "Ġcast": 3006,
            "ula": 3007,
            "Ġprogram": 3008,
            "Ġwatching": 3009,
            "Ġfinish": 3010,
            "Ġsus": 3011,
            "night": 3012,
            "ĠDavid": 3013,
            "Ġmad": 3014,
            "ĠMark": 3015,
            "Ġcomplete": 3016,
            "Ġexclaimed": 3017,
            "Ġgiving": 3018,
            "Ġprop": 3019,
            "Ġinform": 3020,
            "ĠWest": 3021,
            "Ġ\\\"\\": 3022,
            "ĠRep": 3023,
            "Ġearth": 3024,
            "ashing": 3025,
            "Ġholding": 3026,
            "ground": 3027,
            "Ġsouth": 3028,
            "nel": 3029,
            "Ġcertainly": 3030,
            "oop": 3031,
            "Ġelep": 3032,
            "ĠAN": 3033,
            "ĠIndian": 3034,
            "Ġhasn": 3035,
            "Ġstreet": 3036,
            "king": 3037,
            "iday": 3038,
            "ĠNational": 3039,
            "board": 3040,
            "Ġooh": 3041,
            "Ġburn": 3042,
            "Ġbelong": 3043,
            "Ġwrote": 3044,
            "ĠBet": 3045,
            "'S": 3046,
            "THE": 3047,
            "ege": 3048,
            "uthor": 3049,
            "box": 3050,
            "Ġpract": 3051,
            "Ġpardon": 3052,
            "Ġdoubt": 3053,
            "Ġcand": 3054,
            "hel": 3055,
            "ĠOF": 3056,
            "pes": 3057,
            "Ġfort": 3058,
            "Ġhol": 3059,
            "Ġlift": 3060,
            "ĠRuss": 3061,
            "Ġtruth": 3062,
            "tered": 3063,
            "gu": 3064,
            "Ġdev": 3065,
            "ichael": 3066,
            "Ġtast": 3067,
            "child": 3068,
            "ĠEle": 3069,
            "Ġbase": 3070,
            "Ġlunch": 3071,
            "ÃŃ": 3072,
            "Ġworth": 3073,
            "Ġlearn": 3074,
            "ĠOr": 3075,
            "Ġmembers": 3076,
            "Ġvi": 3077,
            "ĠBy": 3078,
            "Ġlanguage": 3079,
            "Ġexample": 3080,
            "Ġsecret": 3081,
            "rit": 3082,
            "Ġfigure": 3083,
            "Ġdistrict": 3084,
            "ĠTH": 3085,
            "ouncil": 3086,
            "ĠNot": 3087,
            "ĠPaul": 3088,
            "Ġsomewhere": 3089,
            "'.\\": 3090,
            "bur": 3091,
            "ishing": 3092,
            "Ġgeneral": 3093,
            "Ġemp": 3094,
            "Ġchurch": 3095,
            "igg": 3096,
            "Ġcaptain": 3097,
            "Ġtail": 3098,
            "lie": 3099,
            "Ġhig": 3100,
            "umm": 3101,
            "ĠWith": 3102,
            "Or": 3103,
            "Ġloc": 3104,
            "izz": 3105,
            "hold": 3106,
            "itted": 3107,
            "resent": 3108,
            ".âĢĿ": 3109,
            "Ġservice": 3110,
            "Ġbas": 3111,
            "iers": 3112,
            "Ġlevel": 3113,
            "Ġmach": 3114,
            "Ġspace": 3115,
            "CHAP": 3116,
            "Ġcharacter": 3117,
            "Ġlaughs": 3118,
            "Ġeveryone": 3119,
            "+\\": 3120,
            "Ġsell": 3121,
            "Ġcop": 3122,
            "Ġanybody": 3123,
            "CHAPTER": 3124,
            "OM": 3125,
            "Ġsummer": 3126,
            "Ġfail": 3127,
            "Ġhoney": 3128,
            "bing": 3129,
            "Ġwash": 3130,
            "dom": 3131,
            "ĠLord": 3132,
            "Ġhistory": 3133,
            "cer": 3134,
            "Ġreceived": 3135,
            "itty": 3136,
            "Ġcarried": 3137,
            "Ġfifty": 3138,
            "Ġbusy": 3139,
            "Ġdep": 3140,
            "Ġ!\\": 3141,
            "bers": 3142,
            "Ġdry": 3143,
            "Ġneigh": 3144,
            "Ġthirty": 3145,
            "Ġmaster": 3146,
            "Ġcoffee": 3147,
            "Ġought": 3148,
            "Ġflowers": 3149,
            "ogn": 3150,
            "Ġteeth": 3151,
            "Ġpictures": 3152,
            "Ġhast": 3153,
            "Ġchicken": 3154,
            "Ġconsider": 3155,
            "ille": 3156,
            "Ġanimal": 3157,
            "See": 3158,
            "Ġmoving": 3159,
            "Ġdifficult": 3160,
            "Ġleaving": 3161,
            "ressed": 3162,
            "Ġcheese": 3163,
            "ĠGl": 3164,
            "Ġdescri": 3165,
            "min": 3166,
            "Ġapart": 3167,
            "Ġpink": 3168,
            "Ġchoc": 3169,
            "ĠâĨ": 3170,
            "..\\": 3171,
            "Ġincluding": 3172,
            "Ġparents": 3173,
            "ancy": 3174,
            "Uh": 3175,
            "Ġtot": 3176,
            "Ġcars": 3177,
            "Ġbottle": 3178,
            "Ġreach": 3179,
            "ounter": 3180,
            "Ġsad": 3181,
            "Ġcompan": 3182,
            "Ġanymore": 3183,
            "aff": 3184,
            "Ġsuddenly": 3185,
            "ĠGeorge": 3186,
            "ĠWhy": 3187,
            "Ġresult": 3188,
            "Ġrising": 3189,
            "ording": 3190,
            "Ġcommune": 3191,
            "Ġdefe": 3192,
            "ĠThese": 3193,
            "Ġloud": 3194,
            "now": 3195,
            "Ġcab": 3196,
            "Ġspoke": 3197,
            "*T": 3198,
            "Ġlock": 3199,
            "mpions": 3200,
            "ED": 3201,
            "Ġhospital": 3202,
            "rel": 3203,
            "ĠAm": 3204,
            "Ġmajor": 3205,
            "eddy": 3206,
            "Ġspir": 3207,
            "eg": 3208,
            "Ġbeat": 3209,
            "ĠMag": 3210,
            "ky": 3211,
            "Ġappeared": 3212,
            "Ġsense": 3213,
            "ĠPresident": 3214,
            "Ġrab": 3215,
            "Ġimag": 3216,
            "Cl": 3217,
            "gie": 3218,
            "Ġyep": 3219,
            "pecially": 3220,
            "Ġpopulation": 3221,
            "Ġstru": 3222,
            "Ġfinger": 3223,
            "US": 3224,
            "iger": 3225,
            "fl": 3226,
            "Ġcard": 3227,
            "Ġtrust": 3228,
            "GH": 3229,
            "ĠAunt": 3230,
            "Ġrub": 3231,
            "ĠEm": 3232,
            "erry": 3233,
            "Ġpuzz": 3234,
            "Ġweren": 3235,
            "ev": 3236,
            "Ġmix": 3237,
            "Ġwet": 3238,
            "arty": 3239,
            "Ġfeed": 3240,
            "Ġplays": 3241,
            "ghed": 3242,
            "Ġconvers": 3243,
            "Ġcrying": 3244,
            "ipe": 3245,
            "Ġmat": 3246,
            "Ġblow": 3247,
            "Ġport": 3248,
            "ression": 3249,
            "Ġcomfort": 3250,
            "Ġcontinued": 3251,
            "ids": 3252,
            "Ġcontain": 3253,
            "ti": 3254,
            "gasps": 3255,
            "llustration": 3256,
            "ĠMother": 3257,
            "rupt": 3258,
            "Ġallowed": 3259,
            "uation": 3260,
            "Ġself": 3261,
            "iod": 3262,
            "Ġjack": 3263,
            "Ġhorses": 3264,
            "ggy": 3265,
            "LA": 3266,
            "how": 3267,
            "Ġthanks": 3268,
            "Ġfurther": 3269,
            "Ġwalked": 3270,
            "Ġwalking": 3271,
            "form": 3272,
            "Ġgod": 3273,
            "ĠAmerica": 3274,
            "Ġsmell": 3275,
            "Ġbeginning": 3276,
            "Ġcompet": 3277,
            "Ġvol": 3278,
            "asket": 3279,
            "Ġalthough": 3280,
            "estern": 3281,
            "Wait": 3282,
            "Ġgas": 3283,
            "ĠDad": 3284,
            "iced": 3285,
            "[re": 3286,
            "house": 3287,
            "Ġlikes": 3288,
            "Take": 3289,
            "Ġvide": 3290,
            "Ġrul": 3291,
            "acing": 3292,
            "Ġcurrent": 3293,
            "Ġgar": 3294,
            "ĠNor": 3295,
            "Ġgrass": 3296,
            "Ġrace": 3297,
            "[Illustration": 3298,
            "Ġdropped": 3299,
            "Ġate": 3300,
            "ĠBrown": 3301,
            "ino": 3302,
            "ĠLea": 3303,
            "ĠCent": 3304,
            "Ġaccept": 3305,
            "Ġseeing": 3306,
            "Ġcorner": 3307,
            "Ġpounds": 3308,
            "view": 3309,
            "ĠLou": 3310,
            "Ġdesign": 3311,
            "Ġcollect": 3312,
            "Ġsex": 3313,
            "uty": 3314,
            "resh": 3315,
            "Ġspot": 3316,
            "Ġapple": 3317,
            "Ġobs": 3318,
            "roll": 3319,
            "Ġremark": 3320,
            "Ġrecogn": 3321,
            "_NA": 3322,
            "work": 3323,
            "het": 3324,
            "cent": 3325,
            "Ġbang": 3326,
            "Ġ]\\": 3327,
            "roy": 3328,
            ".S": 3329,
            "Ġwide": 3330,
            "play": 3331,
            "Ġnor": 3332,
            "Ġgames": 3333,
            "ization": 3334,
            "Ġtall": 3335,
            "ĠEll": 3336,
            "pend": 3337,
            "-C": 3338,
            "Ġpock": 3339,
            "Ġcamer": 3340,
            "Ġtor": 3341,
            "ounced": 3342,
            "Ġjour": 3343,
            "izes": 3344,
            "ĠSu": 3345,
            "Ġnatur": 3346,
            "Ġfle": 3347,
            "Ġpicks": 3348,
            "His": 3349,
            "Ġtype": 3350,
            "oose": 3351,
            "ume": 3352,
            "Ġthou": 3353,
            "gel": 3354,
            "whis": 3355,
            "Ġprin": 3356,
            "olute": 3357,
            "aves": 3358,
            "ĠEx": 3359,
            "razy": 3360,
            "wh": 3361,
            "Ġholds": 3362,
            "olate": 3363,
            "Thanks": 3364,
            "Ġbra": 3365,
            "Ġlose": 3366,
            "acy": 3367,
            "Ġlaughed": 3368,
            "aps": 3369,
            "Ġdistance": 3370,
            "ĠMama": 3371,
            "asant": 3372,
            "Ġplate": 3373,
            "unicip": 3374,
            "Ġbank": 3375,
            "Ġletters": 3376,
            "Ġspend": 3377,
            "Ġshape": 3378,
            "ades": 3379,
            "Ġgen": 3380,
            "Ġattention": 3381,
            "ĠAfr": 3382,
            "Ġvict": 3383,
            "Ġfucking": 3384,
            "eally": 3385,
            "Ĵ\\": 3386,
            "Ġmoon": 3387,
            "singing": 3388,
            "Ġcream": 3389,
            "elve": 3390,
            "Ġcounty": 3391,
            "ĠBlack": 3392,
            "noise": 3393,
            "Ġcreated": 3394,
            "clock": 3395,
            "Ġears": 3396,
            "Ġuhoh": 3397,
            "Ġlocal": 3398,
            "Ġpresident": 3399,
            "Ġpriv": 3400,
            "Ar": 3401,
            "Ġmeeting": 3402,
            "riage": 3403,
            "ala": 3404,
            "Ġaccount": 3405,
            "Ġitself": 3406,
            "nie": 3407,
            "str": 3408,
            "Ġbased": 3409,
            "ĠGood": 3410,
            "looks": 3411,
            "Ġpopular": 3412,
            "Sorry": 3413,
            "Ġcentury": 3414,
            "Ġauthor": 3415,
            "!âĢĿ\\": 3416,
            "ĠRoman": 3417,
            "ida": 3418,
            "Ġentire": 3419,
            "ĠSm": 3420,
            "Ġlim": 3421,
            "EL": 3422,
            "Ġdanc": 3423,
            "Ġleaves": 3424,
            "ya": 3425,
            "Ġinformation": 3426,
            "ID": 3427,
            "ET": 3428,
            "ĠSe": 3429,
            "ograp": 3430,
            "Ġsheep": 3431,
            "Ġlab": 3432,
            "pered": 3433,
            "Ġsilence": 3434,
            "rian": 3435,
            "ato": 3436,
            "Ġnecess": 3437,
            "ĠHen": 3438,
            "Ġspl": 3439,
            "ission": 3440,
            "Ġdelight": 3441,
            "Ġeggs": 3442,
            "itions": 3443,
            "Ġnobody": 3444,
            "ĠâĮĬ": 3445,
            "Ġhide": 3446,
            "Ġmonkey": 3447,
            "Ġfavorite": 3448,
            "Ġperiod": 3449,
            "uge": 3450,
            "Ġrespect": 3451,
            "Ġliked": 3452,
            "Ġcontrol": 3453,
            "olved": 3454,
            "Ġcapital": 3455,
            "ashed": 3456,
            "ĠSpan": 3457,
            "Ġdig": 3458,
            "ads": 3459,
            "Ġgrew": 3460,
            "imin": 3461,
            "Ġmatch": 3462,
            "ĠMot": 3463,
            "isten": 3464,
            "uture": 3465,
            "ounded": 3466,
            "Ġvers": 3467,
            "Ġbull": 3468,
            "Ġkick": 3469,
            "Ġhealth": 3470,
            "[S": 3471,
            "Ġlaughing": 3472,
            "ĠBill": 3473,
            "ĠâĮĪ": 3474,
            "por": 3475,
            "Ġsilver": 3476,
            "Ġparts": 3477,
            "cher": 3478,
            "âĮī": 3479,
            "OW": 3480,
            "Ġleng": 3481,
            "._": 3482,
            "Ġdance": 3483,
            "bert": 3484,
            "Ġwriting": 3485,
            "-M": 3486,
            "âĮĭ": 3487,
            "itive": 3488,
            "Ġnone": 3489,
            "osaur": 3490,
            "raft": 3491,
            "Ġye": 3492,
            "cell": 3493,
            "iller": 3494,
            "Ġelephant": 3495,
            ",--": 3496,
            "wood": 3497,
            "ilar": 3498,
            "Ġshouldn": 3499,
            "icro": 3500,
            "Ġsky": 3501,
            "ĠPol": 3502,
            "Ġcrayon": 3503,
            "Ġwonderful": 3504,
            "ston": 3505,
            "oom": 3506,
            "Ġinteresting": 3507,
            "[C": 3508,
            "Will": 3509,
            "icy": 3510,
            "chn": 3511,
            "ĠGermany": 3512,
            "Ġdrop": 3513,
            "ĠJames": 3514,
            "Ġpap": 3515,
            "Ġforce": 3516,
            "ply": 3517,
            "ĠSar": 3518,
            "ipped": 3519,
            "ĠHarry": 3520,
            "Ġmention": 3521,
            "Ġnorm": 3522,
            "Ġpet": 3523,
            "Ġperfor": 3524,
            "ĠQue": 3525,
            "Ġ$": 3526,
            "ĠLet": 3527,
            "Ġbell": 3528,
            "Ġbirds": 3529,
            "Ġwel": 3530,
            "OK": 3531,
            "Ġtur": 3532,
            "name": 3533,
            "Ġfamous": 3534,
            "light": 3535,
            "ĠRight": 3536,
            "Ġnames": 3537,
            "Ġkey": 3538,
            "obert": 3539,
            "off": 3540,
            "Ġstars": 3541,
            "astic": 3542,
            "Ġshowed": 3543,
            "ĠWilliam": 3544,
            "Ġjud": 3545,
            "Ġstarts": 3546,
            "Ġhall": 3547,
            "Ġsle": 3548,
            "Ġincre": 3549,
            "Ġhate": 3550,
            "Ġmur": 3551,
            "medi": 3552,
            "ĠMe": 3553,
            "bout": 3554,
            "Ġcell": 3555,
            "Ġlying": 3556,
            "Ġquestions": 3557,
            "By": 3558,
            "ires": 3559,
            "isted": 3560,
            "Ġinterested": 3561,
            "Ġanx": 3562,
            "arr": 3563,
            "ĠMad": 3564,
            "ĠBilly": 3565,
            "Like": 3566,
            "Ġalive": 3567,
            "ĠQu": 3568,
            "aven": 3569,
            "Ġattempt": 3570,
            "Ġarmy": 3571,
            "Ġcrazy": 3572,
            "ius": 3573,
            "Ġgives": 3574,
            "Ġpaid": 3575,
            "Ġhous": 3576,
            "ĠINV": 3577,
            "Ġbigger": 3578,
            "iforn": 3579,
            ",'": 3580,
            "Ġwheel": 3581,
            "Ġneeded": 3582,
            "Ġmid": 3583,
            "iel": 3584,
            "ĠMichael": 3585,
            "ĠJwww": 3586,
            "Ġhy": 3587,
            "ĠâĢĺ": 3588,
            "Ġthee": 3589,
            "ĠUncle": 3590,
            "Ġexam": 3591,
            "ivil": 3592,
            "viously": 3593,
            "Ġbridge": 3594,
            "Ġfinally": 3595,
            "owd": 3596,
            "ĠTe": 3597,
            "Ġreading": 3598,
            "Ġclever": 3599,
            "Ġsinging": 3600,
            "Tell": 3601,
            "Ġaut": 3602,
            "Ġplant": 3603,
            "Ġ#": 3604,
            "pers": 3605,
            "Ġclosed": 3606,
            "ĠJust": 3607,
            "soci": 3608,
            "ĠMon": 3609,
            "Ġcharge": 3610,
            "Ġfingers": 3611,
            "lin": 3612,
            "Ġserious": 3613,
            "Ġbasket": 3614,
            "ites": 3615,
            "Ġfuture": 3616,
            "Ġï¿½": 3617,
            "Ġspeed": 3618,
            "ĠRob": 3619,
            "ĠHowever": 3620,
            "eneral": 3621,
            "ums": 3622,
            "Ġtrad": 3623,
            "Ġcamera": 3624,
            "oly": 3625,
            "Ġphot": 3626,
            "lt": 3627,
            "Ġsmile": 3628,
            "Ġscared": 3629,
            "ustom": 3630,
            "RY": 3631,
            "Ġcomput": 3632,
            "iment": 3633,
            "Ġslowly": 3634,
            "itary": 3635,
            "Ġsurprise": 3636,
            "lo": 3637,
            "Ġtwelve": 3638,
            "ifornia": 3639,
            "Un": 3640,
            "âĢĻm": 3641,
            "Ġofficer": 3642,
            "reg": 3643,
            "asion": 3644,
            "Ġespecially": 3645,
            "irm": 3646,
            "cious": 3647,
            "itz": 3648,
            "Ġrose": 3649,
            "\\\")": 3650,
            "Ġiss": 3651,
            "Ġbelow": 3652,
            "anor": 3653,
            "Ġmem": 3654,
            "Ġvideo": 3655,
            "omes": 3656,
            "Stop": 3657,
            "-I": 3658,
            "af": 3659,
            "Ġprofession": 3660,
            "Ġbene": 3661,
            "Ġsubject": 3662,
            "ils": 3663,
            "ribut": 3664,
            "Ġdin": 3665,
            "Ġfool": 3666,
            "Ġpray": 3667,
            "Ġspoon": 3668,
            "ĠRiver": 3669,
            "Ġcapt": 3670,
            "ĠâĨĴ\\": 3671,
            "Ġconversation": 3672,
            "_,": 3673,
            "orts": 3674,
            "isf": 3675,
            "ument": 3676,
            "ATT": 3677,
            "Ġrap": 3678,
            "Ġhost": 3679,
            "Ġtit": 3680,
            "ĠComm": 3681,
            "ĠGreat": 3682,
            "Ġdirty": 3683,
            "ival": 3684,
            "Ġshare": 3685,
            "Ġloved": 3686,
            "upid": 3687,
            "Ġcrack": 3688,
            "Ġconne": 3689,
            "Bl": 3690,
            "ploy": 3691,
            "iles": 3692,
            "Ġfilm": 3693,
            "lymp": 3694,
            "Ġproblems": 3695,
            "ĠCalifornia": 3696,
            "raph": 3697,
            "Ġmunicip": 3698,
            "Ġaccident": 3699,
            "Ġrepe": 3700,
            "Ġmass": 3701,
            "Ġinfl": 3702,
            "*FAD": 3703,
            "hood": 3704,
            "Ġchief": 3705,
            "Ġtow": 3706,
            "Ġprep": 3707,
            "eep": 3708,
            "chan": 3709,
            "[d": 3710,
            "sings": 3711,
            "Ġrid": 3712,
            "Ġasleep": 3713,
            "Ġdue": 3714,
            "Ġfre": 3715,
            "antly": 3716,
            "ĠMor": 3717,
            "Ġactiv": 3718,
            "eder": 3719,
            "ĠPark": 3720,
            "Ġdirection": 3721,
            "Ġinn": 3722,
            "Ġep": 3723,
            "Ġpaint": 3724,
            "field": 3725,
            "ĠHouse": 3726,
            "ĠBobby": 3727,
            "Ġbreath": 3728,
            "Ġchocolate": 3729,
            "nand": 3730,
            "Hi": 3731,
            "Ġshows": 3732,
            "val": 3733,
            "kin": 3734,
            "rs": 3735,
            "Ġviol": 3736,
            "ichard": 3737,
            "Ġsleeping": 3738,
            "Ġspecies": 3739,
            "Ġcountries": 3740,
            "aching": 3741,
            "Ġterrible": 3742,
            "Ġdogs": 3743,
            "*CAR": 3744,
            "Ġshit": 3745,
            "AM": 3746,
            "ether": 3747,
            "Ġvan": 3748,
            "ili": 3749,
            "Ġinvest": 3750,
            "Ġeduc": 3751,
            "Ġfresh": 3752,
            "Ġfem": 3753,
            "ĠSy": 3754,
            "Ġasking": 3755,
            "*UN": 3756,
            "alley": 3757,
            "ĠParty": 3758,
            "gs": 3759,
            "Ġcircle": 3760,
            "ably": 3761,
            "Ġshore": 3762,
            "Ġsepar": 3763,
            "ĠNe": 3764,
            "Ġextra": 3765,
            "ods": 3766,
            "Ġadult": 3767,
            "Ġremain": 3768,
            "ĠOlymp": 3769,
            "Ġhurry": 3770,
            "Ġpocket": 3771,
            "gged": 3772,
            "Ġ(\\\"": 3773,
            "ĠThan": 3774,
            "aud": 3775,
            "under": 3776,
            "Ġhelped": 3777,
            "Ġmachine": 3778,
            "Ġserved": 3779,
            "Ġpicked": 3780,
            "Ġforth": 3781,
            "Ġstraw": 3782,
            "[points": 3783,
            "pose": 3784,
            "Ġbite": 3785,
            "ï¿½ï¿½ï¿½ï¿½": 3786,
            "Ġturning": 3787,
            "Per": 3788,
            "Ġcoat": 3789,
            "yle": 3790,
            "Ġfright": 3791,
            "Ġpal": 3792,
            "Ġnaught": 3793,
            "Ġcovered": 3794,
            "kn": 3795,
            "pping": 3796,
            "ĠBetty": 3797,
            "cuse": 3798,
            "wise": 3799,
            "ingly": 3800,
            "IB": 3801,
            "nes": 3802,
            "Ġrob": 3803,
            "Ġforty": 3804,
            "ours": 3805,
            "ĠRed": 3806,
            "Ġaccom": 3807,
            "hem": 3808,
            "Ġwest": 3809,
            "'clock": 3810,
            "Ġcomb": 3811,
            "Ġslight": 3812,
            "yond": 3813,
            "Ġspread": 3814,
            "ĠSund": 3815,
            "ĠBon": 3816,
            "Ġjoined": 3817,
            "Ġinclude": 3818,
            "ĠIndia": 3819,
            "ico": 3820,
            "set": 3821,
            "Ġmeat": 3822,
            "Ġpeace": 3823,
            "Ġpolitician": 3824,
            "Ġscr": 3825,
            ".'\\": 3826,
            "Ġhardly": 3827,
            "ĠDor": 3828,
            "Ġearl": 3829,
            "ĠAND": 3830,
            "These": 3831,
            "Ġlikely": 3832,
            "Ġolder": 3833,
            "Ġspent": 3834,
            "Ġcourt": 3835,
            "Ġrepresent": 3836,
            "cks": 3837,
            "epend": 3838,
            "Ġterm": 3839,
            "Ġamount": 3840,
            "*ATT": 3841,
            "Ġimmedi": 3842,
            "Ġsna": 3843,
            "Ġfol": 3844,
            "Ġdrawing": 3845,
            "conom": 3846,
            "outs": 3847,
            "ination": 3848,
            "uses": 3849,
            "Ġrabbit": 3850,
            "Ġpers": 3851,
            "Ġblank": 3852,
            "Ġlearned": 3853,
            "Ġstage": 3854,
            "Ġprocess": 3855,
            "lands": 3856,
            "Ġways": 3857,
            "uction": 3858,
            "Ġtalked": 3859,
            "Ġcaused": 3860,
            "rey": 3861,
            "illa": 3862,
            "inite": 3863,
            "ĠJul": 3864,
            "ĠFirst": 3865,
            "Ġforest": 3866,
            "ĠSec": 3867,
            "ĠAmy": 3868,
            "ĠUS": 3869,
            "Ġcrowd": 3870,
            "Ġentered": 3871,
            "ĠWhere": 3872,
            "uten": 3873,
            "Ġsevent": 3874,
            "hire": 3875,
            "Ġpromise": 3876,
            "of": 3877,
            "ĠLeague": 3878,
            "erve": 3879,
            "ĠSant": 3880,
            "Ġver": 3881,
            "Ġoops": 3882,
            "oses": 3883,
            "olutely": 3884,
            "rect": 3885,
            "ushing": 3886,
            "aker": 3887,
            "ĠMat": 3888,
            "ption": 3889,
            "âĢĻve": 3890,
            "ĠOf": 3891,
            "cience": 3892,
            "Ġstudy": 3893,
            "Ġhun": 3894,
            "Ġstone": 3895,
            "ĠEast": 3896,
            "rib": 3897,
            "Ġsituation": 3898,
            "iant": 3899,
            "Ġdeclared": 3900,
            "Ġupstairs": 3901,
            "ĠSir": 3902,
            "ĠWho": 3903,
            "Give": 3904,
            "ĠLuc": 3905,
            "Ġuncle": 3906,
            "olf": 3907,
            "-h": 3908,
            "ĠSue": 3909,
            "Ġsquare": 3910,
            "Ġbattle": 3911,
            "Ġworse": 3912,
            "Ġsize": 3913,
            "Ġmountain": 3914,
            "Ġsimilar": 3915,
            "cul": 3916,
            "esus": 3917,
            "atives": 3918,
            "*UNK": 3919,
            "-S": 3920,
            "Ġrail": 3921,
            "andy": 3922,
            "Ġconcern": 3923,
            "ests": 3924,
            "Ġcalling": 3925,
            "Ġsatisf": 3926,
            "istory": 3927,
            "Ġtour": 3928,
            "Ġthy": 3929,
            "ams": 3930,
            "Ġspring": 3931,
            "reek": 3932,
            "ĠJapanese": 3933,
            "aded": 3934,
            "Ġdriving": 3935,
            "Ġwelcome": 3936,
            "Ġden": 3937,
            "isy": 3938,
            "Ġris": 3939,
            "ĠEleanor": 3940,
            "ĠRepubl": 3941,
            "ference": 3942,
            "order": 3943,
            "Ġstories": 3944,
            "arm": 3945,
            "Ġlength": 3946,
            "ĠGovern": 3947,
            "ĠFred": 3948,
            "VE": 3949,
            "nam": 3950,
            "ensus": 3951,
            "va": 3952,
            "like": 3953,
            "ĠHenry": 3954,
            "ously": 3955,
            "inc": 3956,
            "ka": 3957,
            "Ġenc": 3958,
            "]!\\": 3959,
            "Ġbroad": 3960,
            "Ġsearch": 3961,
            "Ġnatural": 3962,
            "Ġdestroy": 3963,
            "elly": 3964,
            "[child": 3965,
            "Ġboo": 3966,
            "Ġshad": 3967,
            "erved": 3968,
            "ĠAnt": 3969,
            "Nothing": 3970,
            "reme": 3971,
            "Ġeff": 3972,
            "'?\\": 3973,
            "sy": 3974,
            "Ġangry": 3975,
            "Ġtiny": 3976,
            "Ġneg": 3977,
            "Ġrelig": 3978,
            "URS": 3979,
            "ĠAre": 3980,
            "Ġexcuse": 3981,
            "Ġdollars": 3982,
            "Ġlaid": 3983,
            "Ġstupid": 3984,
            "ibly": 3985,
            "Ġrese": 3986,
            "Ġsandw": 3987,
            "ĠCome": 3988,
            "Ġsteps": 3989,
            "Ġguard": 3990,
            "aches": 3991,
            "Two": 3992,
            "Ġpath": 3993,
            "Ġhiding": 3994,
            "nal": 3995,
            "Ġjoin": 3996,
            "Ġutter": 3997,
            "Ġblocks": 3998,
            "edd": 3999,
            "ĠSer": 4000,
            "Re": 4001,
            "Ġclock": 4002,
            "-day": 4003,
            "ĠRobert": 4004,
            "orthern": 4005,
            "Ġemb": 4006,
            "nded": 4007,
            "inary": 4008,
            "time": 4009,
            "Ġvarious": 4010,
            "Ġtight": 4011,
            "Ġskin": 4012,
            "Ġlargest": 4013,
            "Ġlines": 4014,
            "Ġshirt": 4015,
            "Ġenemy": 4016,
            "Ġrich": 4017,
            "ergy": 4018,
            "ĠOkay": 4019,
            "ĠMinister": 4020,
            "essie": 4021,
            "ĠAust": 4022,
            "Ġdirected": 4023,
            "hal": 4024,
            "Ġteddy": 4025,
            "ita": 4026,
            "Ġparticular": 4027,
            "Ġbabies": 4028,
            "Ġhill": 4029,
            "org": 4030,
            "ĠJo": 4031,
            "reet": 4032,
            "Ġmovies": 4033,
            "Ġcloud": 4034,
            "AY": 4035,
            "asc": 4036,
            "ĠColl": 4037,
            "Ġnaughty": 4038,
            "Ġur": 4039,
            "Gr": 4040,
            "Ġdressed": 4041,
            "ĠEr": 4042,
            "Ġrole": 4043,
            "Ġdiscuss": 4044,
            "Really": 4045,
            "Ġbeha": 4046,
            "Ġfighting": 4047,
            "Ġthrew": 4048,
            "Ġnurs": 4049,
            "Ġeast": 4050,
            "Ġwinter": 4051,
            "Listen": 4052,
            "sidered": 4053,
            "ees": 4054,
            "Ġlion": 4055,
            "Ġbeyond": 4056,
            "Ġconsidered": 4057,
            "Ġleader": 4058,
            "action": 4059,
            "Ġdeter": 4060,
            "Ġbeside": 4061,
            "ĠAustralia": 4062,
            "Ġagreed": 4063,
            "oyal": 4064,
            "astern": 4065,
            "Ġaff": 4066,
            "can": 4067,
            "atic": 4068,
            "laughing": 4069,
            "Somet": 4070,
            "Ġattend": 4071,
            "Ġfinal": 4072,
            "Ġfalling": 4073,
            "Ġexplain": 4074,
            "Ġtou": 4075,
            "Ġnumbers": 4076,
            "MOT": 4077,
            "ĠBlue": 4078,
            "Ġplaced": 4079,
            "Ġmissing": 4080,
            "Ġge": 4081,
            "Ġshoe": 4082,
            "Ġrough": 4083,
            "ĠCo": 4084,
            "Ġphys": 4085,
            "Ġmedic": 4086,
            "ially": 4087,
            "Ġthick": 4088,
            "Ġdrew": 4089,
            "Ġpuzzle": 4090,
            "-g": 4091,
            "Ġgoin": 4092,
            "ĠHere": 4093,
            "Ġcolors": 4094,
            "Very": 4095,
            "Ġflat": 4096,
            "Ġstreng": 4097,
            "Ġflying": 4098,
            "Ġrefer": 4099,
            "ography": 4100,
            "Ġham": 4101,
            "Ġrespons": 4102,
            "Ġhappening": 4103,
            "Peter": 4104,
            "ĠAlex": 4105,
            "zen": 4106,
            "cture": 4107,
            "essor": 4108,
            "Ġwha": 4109,
            "ĠCat": 4110,
            "From": 4111,
            "ĠSan": 4112,
            "Ġaction": 4113,
            "ĠHall": 4114,
            "Ġconv": 4115,
            "bl": 4116,
            "mie": 4117,
            "hin": 4118,
            "inct": 4119,
            "Ġwake": 4120,
            "icious": 4121,
            "Ġplane": 4122,
            "Ġma": 4123,
            "ux": 4124,
            "Ġdriver": 4125,
            "rans": 4126,
            "ails": 4127,
            "Br": 4128,
            "Ġspell": 4129,
            "[g": 4130,
            "hered": 4131,
            "Ġble": 4132,
            "Ġcult": 4133,
            "oming": 4134,
            "oles": 4135,
            "Ġunless": 4136,
            "Ġjoy": 4137,
            "uke": 4138,
            "ĠMer": 4139,
            "arrow": 4140,
            "Ġdiscovered": 4141,
            "Ġwatched": 4142,
            "CK": 4143,
            "Ġarrived": 4144,
            "Mar": 4145,
            "Would": 4146,
            "Ġscar": 4147,
            "Ġraised": 4148,
            "Ġintrod": 4149,
            "OL": 4150,
            "Ġonto": 4151,
            "Ġpuppet": 4152,
            "ĠII": 4153,
            "Ġsoldiers": 4154,
            "Ġsuit": 4155,
            "stit": 4156,
            "rer": 4157,
            "Ġtaste": 4158,
            "ĠSunday": 4159,
            "Ġsett": 4160,
            "Ġpulled": 4161,
            "Ġmissed": 4162,
            "Ġtrip": 4163,
            "aturday": 4164,
            "ached": 4165,
            "ĠState": 4166,
            "ĠSarah": 4167,
            "ĠCr": 4168,
            "Ne": 4169,
            "Ġdinosaur": 4170,
            "IR": 4171,
            "Ġwearing": 4172,
            "Ġdifference": 4173,
            "ables": 4174,
            "*URS": 4175,
            "Ġhouses": 4176,
            "itude": 4177,
            "Ġsens": 4178,
            "ĠAnne": 4179,
            "Ġeasily": 4180,
            "ira": 4181,
            "ĠFather": 4182,
            "Does": 4183,
            "Even": 4184,
            "Sure": 4185,
            "antic": 4186,
            "ĠDick": 4187,
            "Ġide": 4188,
            "Ġmam": 4189,
            "ena": 4190,
            "ĠSchool": 4191,
            "iction": 4192,
            "ander": 4193,
            "Ġproud": 4194,
            "Ġoppos": 4195,
            "ois": 4196,
            "ĠRos": 4197,
            "Ġthinks": 4198,
            "Ġneedta": 4199,
            "ĠSpanish": 4200,
            "[looks": 4201,
            "Ġeager": 4202,
            "essel": 4203,
            "ousin": 4204,
            "oken": 4205,
            "ĠMal": 4206,
            "ĠCarol": 4207,
            "Ġescape": 4208,
            "Ġiron": 4209,
            "Mhm": 4210,
            "Ġlid": 4211,
            "Ġdemand": 4212,
            "Ġrelations": 4213,
            "OA": 4214,
            "Ġbrush": 4215,
            "Ġsimple": 4216,
            "Ġpun": 4217,
            "Ġcrit": 4218,
            "Ġweather": 4219,
            "Ġgate": 4220,
            "Ġappl": 4221,
            "Ġtemper": 4222,
            "nds": 4223,
            "aura": 4224,
            "Ġformed": 4225,
            "ighs": 4226,
            "ples": 4227,
            "ural": 4228,
            "Ġmoves": 4229,
            "*TUR": 4230,
            "lect": 4231,
            "ĠCup": 4232,
            "Ġmicro": 4233,
            "Ġund": 4234,
            "oring": 4235,
            "Ġmarket": 4236,
            "ville": 4237,
            "Ġ&": 4238,
            "Ġbud": 4239,
            "...?\\": 4240,
            "Ġpleasure": 4241,
            "Ġtax": 4242,
            ":\"Ċ": 4243,
            "ups": 4244,
            "Ġspeaking": 4245,
            "Ġtap": 4246,
            "Ġweap": 4247,
            "ĠMed": 4248,
            "Ġmanner": 4249,
            "urse": 4250,
            "Ġshr": 4251,
            "âĢĻd": 4252,
            "TH": 4253,
            "Ġsuff": 4254,
            "Ġwoods": 4255,
            "Ġsharp": 4256,
            "Ġhandle": 4257,
            "ciety": 4258,
            "*V": 4259,
            "vell": 4260,
            "ĠBur": 4261,
            "asons": 4262,
            "ashion": 4263,
            "Ġoffe": 4264,
            "Ġempty": 4265,
            "Ġbill": 4266,
            "Ġfilled": 4267,
            "Ġbackground": 4268,
            "âĢĻre": 4269,
            "ency": 4270,
            "ĠJane": 4271,
            "ivid": 4272,
            "vocalizes": 4273,
            "Ġprofessional": 4274,
            "pin": 4275,
            "Pl": 4276,
            "bre": 4277,
            "ularly": 4278,
            "Ġmanage": 4279,
            "Ġcere": 4280,
            "Ġgrad": 4281,
            "ĠMus": 4282,
            "iled": 4283,
            "Ġcollege": 4284,
            "Ġmir": 4285,
            "Ġgoodness": 4286,
            "oved": 4287,
            "Ġstarting": 4288,
            "Ġbuck": 4289,
            "Ġdust": 4290,
            "Ġdangerous": 4291,
            "Ġspirit": 4292,
            "ĠBert": 4293,
            "ĠTur": 4294,
            "Ġcrew": 4295,
            "roat": 4296,
            "pens": 4297,
            "azing": 4298,
            "Ġanywhere": 4299,
            "ĠMex": 4300,
            "Ġhonest": 4301,
            "Ġmater": 4302,
            "idden": 4303,
            "Ġdepend": 4304,
            "ĠLa": 4305,
            "Ġpurple": 4306,
            "Ġwit": 4307,
            "Ġcomputer": 4308,
            "Ġthreat": 4309,
            "ĠChe": 4310,
            "Ġsurprised": 4311,
            "ences": 4312,
            "ĠRichard": 4313,
            "Ġended": 4314,
            "Ġbegin": 4315,
            "outhern": 4316,
            "ĠGeneral": 4317,
            "ago": 4318,
            "Ġdru": 4319,
            "Ġbound": 4320,
            "ett": 4321,
            "utenant": 4322,
            "utch": 4323,
            "Ġcompletely": 4324,
            "Ġhadn": 4325,
            "mother": 4326,
            "-in": 4327,
            "ternational": 4328,
            "Ġemploy": 4329,
            "bour": 4330,
            "ĠJean": 4331,
            "ĠChampions": 4332,
            "Ġroof": 4333,
            "Ġfruit": 4334,
            "Ġtechn": 4335,
            "iest": 4336,
            "icle": 4337,
            "ĠBer": 4338,
            "oves": 4339,
            "Ġsnake": 4340,
            "ĠBro": 4341,
            "ĠBo": 4342,
            "Ġhuge": 4343,
            "Ġvessel": 4344,
            "Ġregard": 4345,
            "sey": 4346,
            "Me": 4347,
            "Ġcoast": 4348,
            "Ġannounced": 4349,
            "Ġtiger": 4350,
            "elle": 4351,
            "Ġstream": 4352,
            "ĠChristian": 4353,
            "Ġdeg": 4354,
            "ugg": 4355,
            "ĠCor": 4356,
            "ĠOl": 4357,
            "Ġsurf": 4358,
            "ĠBel": 4359,
            "Ġtower": 4360,
            "father": 4361,
            "Ġcro": 4362,
            "ĠTex": 4363,
            "ĠHigh": 4364,
            "vious": 4365,
            "Ġhero": 4366,
            "Ġbee": 4367,
            "ĠParis": 4368,
            "Qu": 4369,
            "Ġscene": 4370,
            "Ġquarter": 4371,
            "Ġtherefore": 4372,
            "Ġnature": 4373,
            "ols": 4374,
            "Ġstran": 4375,
            "Ġpleasant": 4376,
            "Ġinj": 4377,
            "cean": 4378,
            "pa": 4379,
            "Ġsocial": 4380,
            "Ġfault": 4381,
            "heart": 4382,
            "Ġhigher": 4383,
            "[a": 4384,
            "Ġradio": 4385,
            "Ġexpected": 4386,
            "hest": 4387,
            "Ġcivil": 4388,
            "Ġflower": 4389,
            "enny": 4390,
            "Ġcabin": 4391,
            "alt": 4392,
            "Ġinflu": 4393,
            "Ġsmoke": 4394,
            "Ġactor": 4395,
            "Ġmum": 4396,
            "ĠLittle": 4397,
            "ĠChild": 4398,
            "Ġlog": 4399,
            "Ġsugar": 4400,
            "Ġfallen": 4401,
            "Our": 4402,
            "ĠRo": 4403,
            "anced": 4404,
            "Ġdate": 4405,
            "Ġkitty": 4406,
            "ĠFrom": 4407,
            "pper": 4408,
            "Ġbelieved": 4409,
            "eer": 4410,
            "nis": 4411,
            "Ġscream": 4412,
            "ĠTony": 4413,
            "Ġtone": 4414,
            "Ġcheer": 4415,
            "Ġmeaning": 4416,
            "Ġwhoops": 4417,
            "Ġsongs": 4418,
            "Ã¼": 4419,
            "Ġplain": 4420,
            "Ġsimply": 4421,
            "oph": 4422,
            "Ġpurpose": 4423,
            "Ġnotice": 4424,
            "ĠEn": 4425,
            "-y": 4426,
            "Ġpan": 4427,
            "Ġexcited": 4428,
            "aine": 4429,
            "itor": 4430,
            "Ġopport": 4431,
            "Ġpleased": 4432,
            "Ġsurv": 4433,
            "iot": 4434,
            "Ġbless": 4435,
            "Ġaud": 4436,
            "Ġnecessary": 4437,
            "Ġduty": 4438,
            "Ġhaha": 4439,
            "Ġoriginal": 4440,
            "Ġlower": 4441,
            "Which": 4442,
            "ĠSaturday": 4443,
            "Pe": 4444,
            "Ġpolitical": 4445,
            "Ġimmediately": 4446,
            "ĠAir": 4447,
            "ords": 4448,
            "Ġagree": 4449,
            "Ġsupper": 4450,
            "ĠTV": 4451,
            "Ġproject": 4452,
            "-A": 4453,
            "Ġtwice": 4454,
            "Ġmotor": 4455,
            "Ġenergy": 4456,
            "ggie": 4457,
            ".,": 4458,
            "berry": 4459,
            "ledge": 4460,
            "Tr": 4461,
            "Ġfaith": 4462,
            "ĠEuropean": 4463,
            "cast": 4464,
            "Ġeconom": 4465,
            "Ġmilitary": 4466,
            "Ġexperience": 4467,
            "ointed": 4468,
            "ems": 4469,
            "Ġedge": 4470,
            "ĠMac": 4471,
            "Ġsmart": 4472,
            "Ġoccasion": 4473,
            "Ġfeat": 4474,
            "Ġarrest": 4475,
            "Her": 4476,
            "ushes": 4477,
            "Ġlights": 4478,
            "God": 4479,
            "mit": 4480,
            "Ġsinger": 4481,
            "Ġmodern": 4482,
            "eds": 4483,
            "Ġthus": 4484,
            "ĠQueen": 4485,
            "abel": 4486,
            "Ġswimming": 4487,
            "Ġheads": 4488,
            "Fran": 4489,
            "Ġbrief": 4490,
            "Ġmunicipality": 4491,
            "ĠWhite": 4492,
            "Ġtravel": 4493,
            "Ġgrown": 4494,
            "AND": 4495,
            "la": 4496,
            "cip": 4497,
            "Ġproduced": 4498,
            "Ġusual": 4499,
            "Ġmostly": 4500,
            "Ġgrab": 4501,
            "anch": 4502,
            "has": 4503,
            "oups": 4504,
            "Ġawful": 4505,
            "bie": 4506,
            "ĠAc": 4507,
            "Ġallow": 4508,
            "Ġprivate": 4509,
            "Ġbeach": 4510,
            "Ġcart": 4511,
            "Ġmouse": 4512,
            "hips": 4513,
            "Ġce": 4514,
            "Ġcustom": 4515,
            "ĠIts": 4516,
            "Ġguns": 4517,
            "Ġident": 4518,
            "Ġtong": 4519,
            "Ġcookie": 4520,
            "onel": 4521,
            "Ġsettle": 4522,
            "Ġant": 4523,
            "brother": 4524,
            "ria": 4525,
            "ĠSteven": 4526,
            "-\\": 4527,
            "[counter": 4528,
            "ĠOld": 4529,
            "ĠCouncil": 4530,
            "Ġruns": 4531,
            "Ġjourney": 4532,
            "Ġnet": 4533,
            "Excuse": 4534,
            "eless": 4535,
            "Ġ.": 4536,
            "Ġoffer": 4537,
            "ruction": 4538,
            "ae": 4539,
            "Ġpin": 4540,
            "ĠPurd": 4541,
            "-de": 4542,
            "Ã¶": 4543,
            "bered": 4544,
            "pan": 4545,
            "usion": 4546,
            "Ġindust": 4547,
            "Ġlake": 4548,
            "istan": 4549,
            "vey": 4550,
            "Ġtrick": 4551,
            "ĠHam": 4552,
            "don": 4553,
            "Ġsoul": 4554,
            "Ġopening": 4555,
            "yer": 4556,
            "Ġknife": 4557,
            "ĠBunny": 4558,
            "History": 4559,
            "Ġlucky": 4560,
            "Ġmagic": 4561,
            "ators": 4562,
            "ĠScott": 4563,
            "inese": 4564,
            "Ġofficers": 4565,
            "ĠBab": 4566,
            "van": 4567,
            "Ġtotal": 4568,
            "Ġvo": 4569,
            "Ġpromised": 4570,
            "ĠLouis": 4571,
            "jo": 4572,
            "ration": 4573,
            "Ġadvent": 4574,
            "*SOA": 4575,
            "Ġplenty": 4576,
            "Ġstruck": 4577,
            "Ġcarefully": 4578,
            "ners": 4579,
            "Ġbrave": 4580,
            "osing": 4581,
            "ively": 4582,
            "OS": 4583,
            "Ġslide": 4584,
            "ĠSim": 4585,
            "Ġterms": 4586,
            "[the": 4587,
            "Ġbutton": 4588,
            "ĠHey": 4589,
            "known": 4590,
            "Ġmummy": 4591,
            "vi": 4592,
            "Ġstret": 4593,
            "oted": 4594,
            "Ġstrength": 4595,
            "line": 4596,
            "Was": 4597,
            "Ġpound": 4598,
            "Ġexist": 4599,
            "Ġimpro": 4600,
            "ishes": 4601,
            "Ġdem": 4602,
            "uckles": 4603,
            "ĠAg": 4604,
            "Ġimm": 4605,
            "pet": 4606,
            "Ġpause": 4607,
            "Ġinterrupt": 4608,
            "ĠIT": 4609,
            "chie": 4610,
            "ossible": 4611,
            "Ġnote": 4612,
            "ĠBig": 4613,
            "*SIB": 4614,
            "Ġfellows": 4615,
            "Ġnoticed": 4616,
            "iber": 4617,
            "Ġcensus": 4618,
            "Ġlistening": 4619,
            "ĠTexas": 4620,
            "Ġstorm": 4621,
            "ĠPort": 4622,
            "-st": 4623,
            "Ġearlier": 4624,
            "ĠSummer": 4625,
            "Ġtears": 4626,
            "Ġap": 4627,
            "Ġsaved": 4628,
            "hah": 4629,
            "lend": 4630,
            "just": 4631,
            "Ġweight": 4632,
            "ĠPurdie": 4633,
            "Ġseconds": 4634,
            "ĠMic": 4635,
            "ibility": 4636,
            "ĠUnion": 4637,
            "Ġladies": 4638,
            "ĠMaggie": 4639,
            "*FRI": 4640,
            "ĠGrandma": 4641,
            "UT": 4642,
            "Ġordered": 4643,
            "Ġelection": 4644,
            "ental": 4645,
            "arry": 4646,
            "Ġdeck": 4647,
            "ĠNic": 4648,
            "elp": 4649,
            "Ġattract": 4650,
            "ki": 4651,
            "Ġgrowing": 4652,
            "CE": 4653,
            "hall": 4654,
            "Ġlips": 4655,
            "Ġchoice": 4656,
            "initely": 4657,
            "Pro": 4658,
            "ucky": 4659,
            "eech": 4660,
            "oons": 4661,
            "ĠYour": 4662,
            "bon": 4663,
            "ĠMel": 4664,
            "Ġtrail": 4665,
            "ĠStan": 4666,
            "Ġnea": 4667,
            "Ġnon": 4668,
            "De": 4669,
            "aked": 4670,
            "Ġflag": 4671,
            "Ġassist": 4672,
            "Ġwatches": 4673,
            "Ġstrugg": 4674,
            "RYA": 4675,
            "gon": 4676,
            "Ġpit": 4677,
            "Ġshoulder": 4678,
            "cries": 4679,
            "itation": 4680,
            "ograph": 4681,
            "Ġevidence": 4682,
            "Ġimagine": 4683,
            "MY": 4684,
            "Ġtv": 4685,
            "Ġpair": 4686,
            "Ġstairs": 4687,
            "agon": 4688,
            "ĠEarth": 4689,
            "Ġoccup": 4690,
            "Ġbowl": 4691,
            "burg": 4692,
            "ashington": 4693,
            "omen": 4694,
            "*RYA": 4695,
            "ĠLee": 4696,
            "Ġshake": 4697,
            "ĠKingdom": 4698,
            "with": 4699,
            "vere": 4700,
            "mond": 4701,
            "Ġwand": 4702,
            "Ġyouth": 4703,
            "eman": 4704,
            "ening": 4705,
            "mar": 4706,
            "Ġwalks": 4707,
            "Ġinvolved": 4708,
            "Ġepis": 4709,
            "ĠItalian": 4710,
            "Ġmistake": 4711,
            "aret": 4712,
            "Ġchoose": 4713,
            "Ġestab": 4714,
            "'T": 4715,
            "inger": 4716,
            "ĠStreet": 4717,
            "kins": 4718,
            "ĠDoctor": 4719,
            "Ġ[?": 4720,
            "Never": 4721,
            "ij": 4722,
            "Ġchem": 4723,
            "Ġmessage": 4724,
            "ĠRussian": 4725,
            "istics": 4726,
            "Ġkeeping": 4727,
            "anda": 4728,
            "Ġtaught": 4729,
            "Ġgroups": 4730,
            "Ġdownstairs": 4731,
            "IM": 4732,
            "ĠâĢĻ": 4733,
            "Ġoccur": 4734,
            "Ġdouble": 4735,
            "ĠMany": 4736,
            "eaks": 4737,
            "Ġet": 4738,
            "Ġnest": 4739,
            "ĠAnna": 4740,
            "Ġtelephone": 4741,
            "Ġrule": 4742,
            "izza": 4743,
            "gl": 4744,
            "Ġcontinues": 4745,
            "Ġclimb": 4746,
            "Ġmeal": 4747,
            "asp": 4748,
            "ĠGra": 4749,
            "igs": 4750,
            "ĠON": 4751,
            "ĠAnn": 4752,
            "rying": 4753,
            "Ġcards": 4754,
            "rot": 4755,
            "ĠTim": 4756,
            "ĠCharles": 4757,
            "Ġbedroom": 4758,
            "ify": 4759,
            "Ġareas": 4760,
            "Ġwhoa": 4761,
            "ĠChina": 4762,
            "ctions": 4763,
            "ette": 4764,
            "Ġfifteen": 4765,
            "ĠCanada": 4766,
            "Ġpublished": 4767,
            "Ġearn": 4768,
            "ĠGold": 4769,
            "Ġdisp": 4770,
            "Ġsac": 4771,
            "Ġrow": 4772,
            "Ġmurder": 4773,
            "âĮī.\\": 4774,
            "Ġsides": 4775,
            "[as": 4776,
            "Ġhotel": 4777,
            "Mrs": 4778,
            "ĠItaly": 4779,
            "Ġtries": 4780,
            "using": 4781,
            "yy": 4782,
            "Ġremem": 4783,
            "oured": 4784,
            "Ġplants": 4785,
            "Ġregular": 4786,
            "oid": 4787,
            "yr": 4788,
            "Ġtells": 4789,
            "Ġwan": 4790,
            "Ġamb": 4791,
            "Ġcalls": 4792,
            "ilence": 4793,
            "ĠLaura": 4794,
            "Ġchap": 4795,
            "Ġbegins": 4796,
            "Ġstock": 4797,
            "ontin": 4798,
            "ĠRoss": 4799,
            "Ġnewsp": 4800,
            "Ġpersonal": 4801,
            "nding": 4802,
            "Ġbrain": 4803,
            "Ġspoken": 4804,
            "Ġgro": 4805,
            "Ġcalm": 4806,
            "ĠST": 4807,
            "Ġintend": 4808,
            "ĠSen": 4809,
            "ĠNat": 4810,
            "*JEN": 4811,
            "Ġpill": 4812,
            "Ġdise": 4813,
            "ĠOK": 4814,
            "Ġcenter": 4815,
            "Ġscient": 4816,
            "Ġflight": 4817,
            "icated": 4818,
            "Ġho": 4819,
            "oughs": 4820,
            "Ġfounded": 4821,
            "elebr": 4822,
            "Ġrapid": 4823,
            "umber": 4824,
            "ĠPri": 4825,
            "Ġunc": 4826,
            "Ġbunny": 4827,
            "ĠDem": 4828,
            "Ġ...": 4829,
            "Ġdancing": 4830,
            "*CAT": 4831,
            "Ġyum": 4832,
            "Ġsurr": 4833,
            "Ġsmaller": 4834,
            "[n": 4835,
            "âĮĭ.\\": 4836,
            "Ġtitle": 4837,
            "ĠWashington": 4838,
            "Ġorders": 4839,
            "Ġgentleman": 4840,
            "Ġgall": 4841,
            "Ġacqu": 4842,
            "Ġbump": 4843,
            "Ġneither": 4844,
            "âĢľYou": 4845,
            "Ġreaches": 4846,
            "otion": 4847,
            "ola": 4848,
            "Ġtoast": 4849,
            "Ġindepend": 4850,
            "ĠScot": 4851,
            "Ġrocks": 4852,
            "Ġpour": 4853,
            "urity": 4854,
            "actor": 4855,
            "Ġjumped": 4856,
            "iring": 4857,
            "Ġaged": 4858,
            "Ã¨": 4859,
            "Ġcommunity": 4860,
            "Ġtun": 4861,
            "Ġpants": 4862,
            "Ġ()": 4863,
            "Ġeleven": 4864,
            "IGH": 4865,
            "Ġdesp": 4866,
            "ĠArab": 4867,
            "Ġheat": 4868,
            "\\nand": 4869,
            "edy": 4870,
            "Only": 4871,
            "Ġshown": 4872,
            "Ġscrew": 4873,
            "Ġcloser": 4874,
            "ĠSch": 4875,
            "ero": 4876,
            "Ġevident": 4877,
            "aa": 4878,
            "Ġfemale": 4879,
            "Ġfixed": 4880,
            "Ġremind": 4881,
            "Ġfirm": 4882,
            "ĠChurch": 4883,
            "razil": 4884,
            "Ġinqu": 4885,
            "anny": 4886,
            "Ġteach": 4887,
            "ule": 4888,
            "[mother": 4889,
            "Ġpil": 4890,
            "Ġlem": 4891,
            "ĠIre": 4892,
            "ourt": 4893,
            "aving": 4894,
            "Ġdeterm": 4895,
            "ulf": 4896,
            "Ġninete": 4897,
            "Ġprepared": 4898,
            "Ġaddress": 4899,
            "ĠJose": 4900,
            "Ġmanaged": 4901,
            "gress": 4902,
            "Ġbat": 4903,
            "bye": 4904,
            "osta": 4905,
            "Ġsour": 4906,
            "Ġwheels": 4907,
            "Ġclaim": 4908,
            "gypt": 4909,
            "-P": 4910,
            "Ġbatter": 4911,
            "Ġtongue": 4912,
            "eff": 4913,
            "ooh": 4914,
            "Ġworried": 4915,
            "berg": 4916,
            "Ġabsolutely": 4917,
            "ĠBE": 4918,
            "ittee": 4919,
            "Ġbother": 4920,
            "ordon": 4921,
            "Ġversion": 4922,
            "ez": 4923,
            "oos": 4924,
            "Ġmult": 4925,
            "Ġbub": 4926,
            "ĠCharlie": 4927,
            "Ġlap": 4928,
            "Ġuhuh": 4929,
            "Ġchanges": 4930,
            "ĠDid": 4931,
            "Ġenter": 4932,
            "Perhaps": 4933,
            "oms": 4934,
            "ĠMartin": 4935,
            "ĠTheir": 4936,
            "ĠJew": 4937,
            "Ġvac": 4938,
            "ĠPeople": 4939,
            "Ġloss": 4940,
            "ique": 4941,
            "Ġpool": 4942,
            "ĠFriday": 4943,
            "Ġharm": 4944,
            "ĠEvery": 4945,
            "Ġdare": 4946,
            "Ġlocated": 4947,
            "Ġquietly": 4948,
            "arliam": 4949,
            "Ġmedicine": 4950,
            "Ġmovement": 4951,
            "*RO": 4952,
            "Ġoo": 4953,
            "Ġcousin": 4954,
            "Ġbloody": 4955,
            "Ġsandwich": 4956,
            "Ġenv": 4957,
            "Ġdirector": 4958,
            "Ġsuggested": 4959,
            "Ã³": 4960,
            "babbles": 4961,
            "-up": 4962,
            "Ġpa": 4963,
            "Ġbits": 4964,
            "ĠIsland": 4965,
            "ĠReg": 4966,
            "ĠFlor": 4967,
            "Ġremained": 4968,
            "Ġcorrect": 4969,
            "Ġthroat": 4970,
            "ĠAdam": 4971,
            "ios": 4972,
            "Ġdrinking": 4973,
            "atin": 4974,
            "ĠBu": 4975,
            "eping": 4976,
            "Ġeverywhere": 4977,
            "Ġcarrying": 4978,
            "Gu": 4979,
            "Got": 4980,
            "Ġrate": 4981,
            "Ġknee": 4982,
            "Ġtraining": 4983,
            "ĠSanta": 4984,
            "WE": 4985,
            "rig": 4986,
            "Ġeld": 4987,
            "ĠAfrica": 4988,
            "Ġcraw": 4989,
            "ĠJud": 4990,
            "Ġnormal": 4991,
            "Ġforgotten": 4992,
            "Ġappre": 4993,
            "Ġshowing": 4994,
            "Ġeducation": 4995,
            "Ġoil": 4996,
            "Ġsch": 4997,
            "rem": 4998,
            "Ġimpossible": 4999,
            "Ġfaces": 5000,
            "Ġblind": 5001,
            "Ġta": 5002,
            "arliament": 5003,
            "isa": 5004,
            "Ġemer": 5005,
            "Ġkinds": 5006,
            "Ġmonster": 5007,
            "ĠBeck": 5008,
            "fly": 5009,
            "arently": 5010,
            "Ġshouted": 5011,
            "-B": 5012,
            "ĠSpain": 5013,
            "lla": 5014,
            "Ġsoftly": 5015,
            "Ġgenerally": 5016,
            "Ġprice": 5017,
            "Could": 5018,
            "Sp": 5019,
            "ĠDist": 5020,
            "Ġfinding": 5021,
            "*VAL": 5022,
            "Ġcases": 5023,
            "rid": 5024,
            "Ġmut": 5025,
            "ching": 5026,
            "lected": 5027,
            "aws": 5028,
            "-ha": 5029,
            "Ġweak": 5030,
            "Ġtrade": 5031,
            "ĠÃ": 5032,
            "ata": 5033,
            "ĠBrazil": 5034,
            "ĠChinese": 5035,
            "Ġbike": 5036,
            "Ġprovince": 5037,
            "Ġpeas": 5038,
            "ipper": 5039,
            "nyou": 5040,
            "Ġelectric": 5041,
            "Ġpizza": 5042,
            "Ġopportunity": 5043,
            "ores": 5044,
            "ĠAward": 5045,
            "urt": 5046,
            "Ġintern": 5047,
            "Ġbin": 5048,
            "ĠIr": 5049,
            "eted": 5050,
            "Ġdolly": 5051,
            "ĠÂ": 5052,
            "Ġplans": 5053,
            "Ġindivid": 5054,
            "Ġsurface": 5055,
            "Ġstayed": 5056,
            "aries": 5057,
            "ĠSl": 5058,
            "UK": 5059,
            "Ġfashion": 5060,
            "Ġinvestig": 5061,
            "Ġpir": 5062,
            "Ġspeech": 5063,
            "illed": 5064,
            "iron": 5065,
            "Ġfalls": 5066,
            "ĠNed": 5067,
            "Ġfourth": 5068,
            "Ġmagaz": 5069,
            "Ġyyy": 5070,
            "ĠPal": 5071,
            "Ġbal": 5072,
            "ĠWin": 5073,
            "Ġloves": 5074,
            "Ġtie": 5075,
            "Ġgrave": 5076,
            "icans": 5077,
            "Ġwhispered": 5078,
            "nic": 5079,
            "Ġancient": 5080,
            "Ġavail": 5081,
            "Ġduh": 5082,
            "ĠBear": 5083,
            "Ġpeek": 5084,
            "Ġprim": 5085,
            "Ġtent": 5086,
            "host": 5087,
            "Ġactress": 5088,
            "Ġnurse": 5089,
            "ĠOlympics": 5090,
            "Ġmail": 5091,
            "Ġdoors": 5092,
            "back": 5093,
            "nce": 5094,
            "ĠEgypt": 5095,
            "cream": 5096,
            "Ġpolic": 5097,
            "ĠJesus": 5098,
            "Ġtowel": 5099,
            "onse": 5100,
            "ĠRock": 5101,
            "Ġevents": 5102,
            "Ġrope": 5103,
            "Ġassoci": 5104,
            "urns": 5105,
            "Ġrules": 5106,
            "was": 5107,
            "Ġproceed": 5108,
            "Ġcred": 5109,
            "ĠWil": 5110,
            "Ġcelebr": 5111,
            "ari": 5112,
            "rees": 5113,
            "Ġdread": 5114,
            "ĠWal": 5115,
            "ĠMost": 5116,
            "Ġmotion": 5117,
            "Ġopin": 5118,
            "ĠMil": 5119,
            "Ġbrothers": 5120,
            "Ġrange": 5121,
            "Ġproduct": 5122,
            "Ġninety": 5123,
            "iety": 5124,
            "Ġsits": 5125,
            "ALL": 5126,
            "Ġpractice": 5127,
            "ĠBonnet": 5128,
            "aled": 5129,
            "Ġliter": 5130,
            "Ġrout": 5131,
            "Ġballoon": 5132,
            "Ġperm": 5133,
            "itional": 5134,
            "Ġexec": 5135,
            "ademy": 5136,
            "nthe": 5137,
            "Ġprevent": 5138,
            "Ġstands": 5139,
            "Ġsixty": 5140,
            "ĠMount": 5141,
            "Ġ...\\": 5142,
            "mo": 5143,
            "Ġleading": 5144,
            "edding": 5145,
            "Ġboats": 5146,
            "Ġships": 5147,
            "Ġobviously": 5148,
            "Ġopposite": 5149,
            "Ġoffered": 5150,
            "Ġpercent": 5151,
            "Ġmicrophone": 5152,
            "lor": 5153,
            "__": 5154,
            "Ġprint": 5155,
            "Ġboss": 5156,
            "Ġsaf": 5157,
            "ims": 5158,
            "onday": 5159,
            "Ġstir": 5160,
            "ĠKen": 5161,
            "Foot": 5162,
            "ĠDep": 5163,
            "ĠDay": 5164,
            "orks": 5165,
            "Cos": 5166,
            "[laughs": 5167,
            "Ġcrash": 5168,
            "sych": 5169,
            "Ġheaven": 5170,
            "Ġsees": 5171,
            "Ġnovel": 5172,
            "Am": 5173,
            "Miss": 5174,
            "Ġourselves": 5175,
            "ker": 5176,
            "Ġbisc": 5177,
            "Ġpump": 5178,
            "Ġupset": 5179,
            "Ġaccording": 5180,
            "hab": 5181,
            "fit": 5182,
            "anche": 5183,
            "iana": 5184,
            "Ġwa": 5185,
            "ĠMax": 5186,
            "amn": 5187,
            "olic": 5188,
            "Ġwalls": 5189,
            "Sir": 5190,
            "Ġhelping": 5191,
            "Ġsake": 5192,
            "Ġcontract": 5193,
            "Ġuses": 5194,
            "icked": 5195,
            "ĠKore": 5196,
            "Ġmountains": 5197,
            "ĠGreen": 5198,
            "ials": 5199,
            "Ġshell": 5200,
            "Ġdoin": 5201,
            "oking": 5202,
            "ĠAct": 5203,
            "ocrat": 5204,
            "Ġsmiled": 5205,
            "worth": 5206,
            "Ġresc": 5207,
            "Ġcentre": 5208,
            "osh": 5209,
            "ĠEve": 5210,
            "ĠSwed": 5211,
            "Ġnineteen": 5212,
            "Ġox": 5213,
            "ĠPrince": 5214,
            "Ġappearance": 5215,
            "ĠTwo": 5216,
            "Ge": 5217,
            "asy": 5218,
            "Ġeasier": 5219,
            "Ġladd": 5220,
            "AU": 5221,
            "Ġbark": 5222,
            "Ġalt": 5223,
            "Ġcouncil": 5224,
            "volution": 5225,
            "OTH": 5226,
            "Ġcrime": 5227,
            "Ġaver": 5228,
            "Ġstudio": 5229,
            "Ġcondition": 5230,
            "erc": 5231,
            "filler": 5232,
            "Ġclown": 5233,
            "izing": 5234,
            "Ġsuspect": 5235,
            "istic": 5236,
            "Ġreck": 5237,
            "ounce": 5238,
            "tering": 5239,
            "Ġshook": 5240,
            "Ġglasses": 5241,
            "ĠFranc": 5242,
            "Ġneighbor": 5243,
            "irgin": 5244,
            "Ġcontinue": 5245,
            "Ooh": 5246,
            "Ġpurs": 5247,
            "Ġaunt": 5248,
            "Ġextreme": 5249,
            "Ġpapers": 5250,
            "ache": 5251,
            "Tom": 5252,
            "Ġeaten": 5253,
            "Ġdecision": 5254,
            "cellent": 5255,
            "Ġrights": 5256,
            "AK": 5257,
            "Ġretired": 5258,
            "Ġfrightened": 5259,
            "Ġdun": 5260,
            "lyn": 5261,
            "Ġvocal": 5262,
            "Dr": 5263,
            "Ġcy": 5264,
            "Ġhonor": 5265,
            "llen": 5266,
            "ĠMont": 5267,
            "useum": 5268,
            "Ġbrill": 5269,
            "ii": 5270,
            "ented": 5271,
            "Ġyounger": 5272,
            "Ġbutt": 5273,
            "ellig": 5274,
            "Ġaffect": 5275,
            "Ġreply": 5276,
            "arily": 5277,
            "she": 5278,
            "Ġkeeps": 5279,
            "Ġflo": 5280,
            "Ġsuccessful": 5281,
            "Ġnarrow": 5282,
            "Ġhistor": 5283,
            "Ġmarry": 5284,
            "Ġbathroom": 5285,
            "Ġshopping": 5286,
            "[J": 5287,
            "aning": 5288,
            "ĠLady": 5289,
            "Ġstyle": 5290,
            "rance": 5291,
            "Ġnap": 5292,
            "Ġballs": 5293,
            "de": 5294,
            "Ġmarriage": 5295,
            "Ġairpl": 5296,
            "Ġstudents": 5297,
            "Com": 5298,
            "ification": 5299,
            "Ġmodel": 5300,
            "ĠBessie": 5301,
            "Ġpossibly": 5302,
            "Ġofficial": 5303,
            "Ġcities": 5304,
            "Ġdesk": 5305,
            "Ġsuc": 5306,
            "Ġfavour": 5307,
            "ĠDutch": 5308,
            "Ġign": 5309,
            "asing": 5310,
            "New": 5311,
            "Ġcontact": 5312,
            "Ġwindows": 5313,
            "Ġbeep": 5314,
            "Ġnursery": 5315,
            "Say": 5316,
            "Ġevil": 5317,
            "Ġideas": 5318,
            "ION": 5319,
            "Se": 5320,
            "-n": 5321,
            "Ġtim": 5322,
            "vest": 5323,
            "semb": 5324,
            "rick": 5325,
            "Ġwhist": 5326,
            "People": 5327,
            "Ġbomb": 5328,
            "Ġchat": 5329,
            "Ġholiday": 5330,
            "Ġmentioned": 5331,
            "inist": 5332,
            "Ġsomewhat": 5333,
            "Ġotherwise": 5334,
            "Ġbiggest": 5335,
            "Ġanxious": 5336,
            "pill": 5337,
            "ENT": 5338,
            "ĠRog": 5339,
            "Ġwilling": 5340,
            "lig": 5341,
            "Ġexplained": 5342,
            "Ġbare": 5343,
            "Ġder": 5344,
            "abeth": 5345,
            "Ġcomfortable": 5346,
            "Ġwashing": 5347,
            "Ġmud": 5348,
            "ĠChan": 5349,
            "Ġaward": 5350,
            "mn": 5351,
            "fection": 5352,
            "rie": 5353,
            "stood": 5354,
            "pany": 5355,
            "Ġincluded": 5356,
            "ĠSmith": 5357,
            "Ġsucceed": 5358,
            "wr": 5359,
            "Ġbringing": 5360,
            "Ġflew": 5361,
            "ĠRepublic": 5362,
            "Ġsettled": 5363,
            "ĠSus": 5364,
            "IL": 5365,
            "ĠMaster": 5366,
            "ĠDel": 5367,
            "Put": 5368,
            "note": 5369,
            "Ġtar": 5370,
            "Ġdetect": 5371,
            "Ġsav": 5372,
            "ĠProv": 5373,
            "Ġpainting": 5374,
            "Ġstring": 5375,
            "Ġwine": 5376,
            "Ġbi": 5377,
            "Ġriding": 5378,
            "bes": 5379,
            "ota": 5380,
            "Ġodd": 5381,
            "Ġdirectly": 5382,
            "Ġforced": 5383,
            "Ġcoach": 5384,
            "John": 5385,
            "Hold": 5386,
            "Ġpoo": 5387,
            "Ġdefinitely": 5388,
            "gn": 5389,
            "Ġpencil": 5390,
            "Ġfairly": 5391,
            "orough": 5392,
            "Ġwaited": 5393,
            "Ġneat": 5394,
            "Ġschools": 5395,
            "ccording": 5396,
            "uits": 5397,
            "Ġafterwards": 5398,
            "Ġfence": 5399,
            "ĠGordon": 5400,
            "ĠInternational": 5401,
            "icles": 5402,
            "ulous": 5403,
            "ĠSal": 5404,
            "âĢľOh": 5405,
            "ĠMo": 5406,
            "cely": 5407,
            "Ġdecide": 5408,
            "Ġzoo": 5409,
            "Ġrisk": 5410,
            "Ġbeauty": 5411,
            "First": 5412,
            "Ġyup": 5413,
            "âĢľYes": 5414,
            "Ġrepeated": 5415,
            "ooth": 5416,
            "sing": 5417,
            "Ġstudied": 5418,
            "Ġcircum": 5419,
            "Ġdeveloped": 5420,
            "VER": 5421,
            "ĠSea": 5422,
            "mend": 5423,
            "cing": 5424,
            "Ġdoc": 5425,
            "idding": 5426,
            "Ġdeb": 5427,
            "Ġune": 5428,
            "IF": 5429,
            "Ġfurn": 5430,
            "Ġtoil": 5431,
            "Ġgreatest": 5432,
            "ube": 5433,
            "Ġkinda": 5434,
            "Ġknowledge": 5435,
            "Ġperfectly": 5436,
            "Ġshel": 5437,
            "ini": 5438,
            "atory": 5439,
            "[picks": 5440,
            "Ġparticularly": 5441,
            "den": 5442,
            "ogether": 5443,
            "Ġproperly": 5444,
            "da": 5445,
            "Ġrust": 5446,
            "----------------": 5447,
            "Keep": 5448,
            "aterpill": 5449,
            "Ġjudge": 5450,
            "Ġblanket": 5451,
            "ni": 5452,
            "Ġpoet": 5453,
            "Ġsilent": 5454,
            "Ġmale": 5455,
            "Ġsteal": 5456,
            "wing": 5457,
            "Man": 5458,
            "Ġhighest": 5459,
            "Ġpages": 5460,
            "odes": 5461,
            "Fuck": 5462,
            "eta": 5463,
            "othy": 5464,
            "isions": 5465,
            "gent": 5466,
            "Ġlarger": 5467,
            "west": 5468,
            "ĠWind": 5469,
            "Ġwaste": 5470,
            "ĠRuth": 5471,
            "Ġwise": 5472,
            "Ġsociety": 5473,
            "ship": 5474,
            "Ġtid": 5475,
            "vert": 5476,
            "-R": 5477,
            "ingu": 5478,
            "aly": 5479,
            "Ġchest": 5480,
            "ĠAlice": 5481,
            "Ġhanging": 5482,
            "Ġrespond": 5483,
            "Ġeighty": 5484,
            "Ġhorsie": 5485,
            "uf": 5486,
            "Ġreb": 5487,
            "Ġmemory": 5488,
            "Footnote": 5489,
            "Ġhook": 5490,
            "ĠSun": 5491,
            "Ġdere": 5492,
            "Ġremarked": 5493,
            "ech": 5494,
            "Ġ*\\": 5495,
            "Ġplayers": 5496,
            "iano": 5497,
            "Ġwedding": 5498,
            "Ġsalt": 5499,
            "sequ": 5500,
            "imit": 5501,
            "Ġprove": 5502,
            "ĠRay": 5503,
            "Ġsafety": 5504,
            "ĠKat": 5505,
            "Ġrings": 5506,
            "acks": 5507,
            "._\\": 5508,
            "hell": 5509,
            "then": 5510,
            "Ġmurd": 5511,
            "opher": 5512,
            "Ġscience": 5513,
            "Ġmor": 5514,
            "Ġwave": 5515,
            "Ġmere": 5516,
            ".'": 5517,
            "Ġnomin": 5518,
            "ĠFAT": 5519,
            "Ġcong": 5520,
            "ockey": 5521,
            "Ġknowing": 5522,
            "ĠFin": 5523,
            "orter": 5524,
            "ictor": 5525,
            "oday": 5526,
            "Ġswing": 5527,
            "Ġhorn": 5528,
            "\\\"]\\": 5529,
            "Ġcloth": 5530,
            "ĠJer": 5531,
            "Ġpowerful": 5532,
            "Ġescap": 5533,
            "Great": 5534,
            "Ġdisease": 5535,
            "Ġcute": 5536,
            "asty": 5537,
            "Ġpushed": 5538,
            "ĠPlay": 5539,
            "ĠChic": 5540,
            "Ġwriter": 5541,
            "Ġteams": 5542,
            "Ġlawyer": 5543,
            "Mom": 5544,
            "Ġrib": 5545,
            "Ġmetal": 5546,
            "Ġfeels": 5547,
            "Ġmate": 5548,
            "fortun": 5549,
            "Ġdevelopment": 5550,
            "Ġtext": 5551,
            "ĠEmp": 5552,
            "Ġknees": 5553,
            "Ġperforman": 5554,
            "-room": 5555,
            "Ġhurried": 5556,
            "Ġtalks": 5557,
            "atoes": 5558,
            "Ġweird": 5559,
            "Ġmanager": 5560,
            "ses": 5561,
            "ĠBay": 5562,
            "ste": 5563,
            "Ġarch": 5564,
            "Ġthoughts": 5565,
            "Ġworst": 5566,
            "ĠBecause": 5567,
            "this": 5568,
            "Ġtroub": 5569,
            "ĠBoy": 5570,
            "Bet": 5571,
            "ulty": 5572,
            "Ġsposta": 5573,
            "Ġbarn": 5574,
            "Ġknocked": 5575,
            "see": 5576,
            "Ġsigned": 5577,
            "Ġhug": 5578,
            "umps": 5579,
            "Ġmeth": 5580,
            "road": 5581,
            "ĠDuring": 5582,
            "Ġvote": 5583,
            "ĠArmy": 5584,
            "LS": 5585,
            "adian": 5586,
            "Ġfund": 5587,
            "Ġdoggie": 5588,
            "Ġcats": 5589,
            "Ġcancer": 5590,
            "Ġboots": 5591,
            "Ġmission": 5592,
            "Ġstates": 5593,
            "ĠBern": 5594,
            "iling": 5595,
            "itar": 5596,
            "Ġcastle": 5597,
            "amps": 5598,
            "*JES": 5599,
            "Ġburst": 5600,
            "ĠIS": 5601,
            "rows": 5602,
            "Ġthrown": 5603,
            "Ġresponse": 5604,
            "place": 5605,
            "Ġsink": 5606,
            "rael": 5607,
            "Ġafford": 5608,
            "ilies": 5609,
            "Ġtractor": 5610,
            "Ġservices": 5611,
            "Three": 5612,
            "Ġshock": 5613,
            "Ġresearch": 5614,
            "tr": 5615,
            "Ġcit": 5616,
            "Ġtummy": 5617,
            "[hold": 5618,
            "Ġpassing": 5619,
            "Ġappreci": 5620,
            "Ġgentlemen": 5621,
            "fall": 5622,
            "ĠMonday": 5623,
            "Ġyay": 5624,
            "LO": 5625,
            "Ġproduc": 5626,
            "Ġfarmer": 5627,
            "isher": 5628,
            "Those": 5629,
            "Ġmel": 5630,
            "ĠLake": 5631,
            "CT": 5632,
            "[aft": 5633,
            "Ġwings": 5634,
            "Ġfancy": 5635,
            "ussy": 5636,
            "ĠCO": 5637,
            "Ġsoldier": 5638,
            "ĠLara": 5639,
            "Ġgay": 5640,
            "Ġsmiling": 5641,
            "ĠLaw": 5642,
            "Ġeffort": 5643,
            "-night": 5644,
            "oned": 5645,
            "ĠGar": 5646,
            "Ġelected": 5647,
            "Ġrealize": 5648,
            "Ġconcerned": 5649,
            "ĠIndians": 5650,
            "-morrow": 5651,
            "pering": 5652,
            "Ġfought": 5653,
            "Ġdisappeared": 5654,
            "Ġavailable": 5655,
            "-L": 5656,
            "Ġremembered": 5657,
            "Ġkeys": 5658,
            "ĠVer": 5659,
            "[B": 5660,
            "uments": 5661,
            "[D": 5662,
            "Ġhearing": 5663,
            "Ġbod": 5664,
            "Ġfired": 5665,
            "Ġnope": 5666,
            "Ġrelated": 5667,
            "Ġ]": 5668,
            "ĠDes": 5669,
            "inda": 5670,
            "ading": 5671,
            "Ġserve": 5672,
            "ansas": 5673,
            "Ġlatter": 5674,
            "Ġinvent": 5675,
            "ĠChris": 5676,
            "ipping": 5677,
            "Ġmatters": 5678,
            "Isn": 5679,
            "itan": 5680,
            "izabeth": 5681,
            "Ġbrilliant": 5682,
            "icking": 5683,
            "âĢĿ.\\": 5684,
            "Ġthin": 5685,
            "ĠME": 5686,
            "Ġwished": 5687,
            "ona": 5688,
            "Ġsoup": 5689,
            "ĠRose": 5690,
            "ĠJones": 5691,
            "Ġopens": 5692,
            "Um": 5693,
            "ban": 5694,
            "Ġdebut": 5695,
            "ĠRome": 5696,
            "sp": 5697,
            "sec": 5698,
            "Che": 5699,
            "etch": 5700,
            "aign": 5701,
            "ĠSuper": 5702,
            "Ph": 5703,
            "Ġprefer": 5704,
            "iggles": 5705,
            "chief": 5706,
            "bey": 5707,
            "Ġmagn": 5708,
            "Ġinternational": 5709,
            "nods": 5710,
            "Ġpra": 5711,
            "alled": 5712,
            "*STE": 5713,
            "-r": 5714,
            "Ġfeelings": 5715,
            "Jack": 5716,
            "Ġgoal": 5717,
            "Ġcooking": 5718,
            "ĠFlorida": 5719,
            "+in": 5720,
            "\\\".\"Ċ": 5721,
            "ĠFort": 5722,
            "âĢľWell": 5723,
            "+box": 5724,
            "Ġthrowing": 5725,
            "Ġvalue": 5726,
            "+the": 5727,
            "ĠSomet": 5728,
            "thur": 5729,
            "Ġahhah": 5730,
            "ĠAcademy": 5731,
            "ironment": 5732,
            "gers": 5733,
            "ĠAh": 5734,
            "Ġopinion": 5735,
            "Ġwondering": 5736,
            "Ġpressure": 5737,
            "About": 5738,
            "âĢľIt": 5739,
            "ĠMarg": 5740,
            "Ġveget": 5741,
            "Ġmo": 5742,
            "icate": 5743,
            "Ġreve": 5744,
            "ĠGO": 5745,
            "Ġpred": 5746,
            "Ġcheek": 5747,
            "Ġdrawn": 5748,
            "Ġfart": 5749,
            "Ġsocks": 5750,
            "-e": 5751,
            "Ġlanguages": 5752,
            "Ġshoulders": 5753,
            "rant": 5754,
            "Ġsen": 5755,
            "Ġrare": 5756,
            "Ġgreater": 5757,
            "iliar": 5758,
            "aming": 5759,
            "Ġtied": 5760,
            "achel": 5761,
            "ĠChief": 5762,
            "ishment": 5763,
            "Ġdism": 5764,
            "ĠWH": 5765,
            "upp": 5766,
            "ĠPost": 5767,
            "ĠMass": 5768,
            "ĠWood": 5769,
            "obile": 5770,
            "apt": 5771,
            "Sc": 5772,
            "ension": 5773,
            "imate": 5774,
            "peror": 5775,
            "itzer": 5776,
            "Ġpsych": 5777,
            "Ġclearly": 5778,
            "Ad": 5779,
            "Ġnative": 5780,
            "Ġforces": 5781,
            "uns": 5782,
            "ĠThank": 5783,
            "Before": 5784,
            "Ġfailed": 5785,
            "ĠJoseph": 5786,
            "Ġdozen": 5787,
            "ĠGreek": 5788,
            "Ġfishing": 5789,
            "Ġproperty": 5790,
            "ĠRoyal": 5791,
            "Wow": 5792,
            "Ġgently": 5793,
            "Ġloose": 5794,
            "Ġaft": 5795,
            "Ġ#\\": 5796,
            "Ġarrange": 5797,
            "Ġdrove": 5798,
            "Ġfully": 5799,
            "ients": 5800,
            "urry": 5801,
            "ĠPet": 5802,
            "YOU": 5803,
            "-D": 5804,
            "Ġgat": 5805,
            "ĠEven": 5806,
            "bits": 5807,
            "Ġmile": 5808,
            "ĠDis": 5809,
            "Ġweeke": 5810,
            "Ġfoc": 5811,
            "gency": 5812,
            "Ġbeast": 5813,
            "ological": 5814,
            "Ġwipe": 5815,
            "Ġstom": 5816,
            "Ġaware": 5817,
            "Ġgarage": 5818,
            "Ġaverage": 5819,
            "[takes": 5820,
            "whispers": 5821,
            "Ġadvant": 5822,
            "ĠSov": 5823,
            "yan": 5824,
            "Ġnerv": 5825,
            "Ġtroops": 5826,
            "Ġvoices": 5827,
            "pre": 5828,
            "Ġqual": 5829,
            "zzz": 5830,
            "ĠEllie": 5831,
            "Ġtoes": 5832,
            "ĠKe": 5833,
            "Ġpresence": 5834,
            "Ġairplane": 5835,
            "win": 5836,
            "Ġsite": 5837,
            "Ġstaff": 5838,
            "Alright": 5839,
            "[$": 5840,
            "Ġprevious": 5841,
            "Everything": 5842,
            "onder": 5843,
            "Ġmaterial": 5844,
            "ĠAnge": 5845,
            "Ġgather": 5846,
            "Ġstro": 5847,
            "Ġcookies": 5848,
            "BC": 5849,
            "Ġacting": 5850,
            "Ġpositive": 5851,
            "Ġfaster": 5852,
            "Ġrelationship": 5853,
            "ĠMike": 5854,
            "Ġjoke": 5855,
            "Ġexpress": 5856,
            "nit": 5857,
            "Ġplat": 5858,
            "sed": 5859,
            "ights": 5860,
            "ĠAustralian": 5861,
            "Ġpulling": 5862,
            "Ġtouched": 5863,
            "ĠCong": 5864,
            "Ġcock": 5865,
            "azed": 5866,
            "ĠChicago": 5867,
            "Ġfriendly": 5868,
            "uan": 5869,
            "ĠWestern": 5870,
            "[puts": 5871,
            "ĠOther": 5872,
            "Ġdrops": 5873,
            "Ġpatient": 5874,
            "Ġcrayons": 5875,
            "craft": 5876,
            "do": 5877,
            "Ġnorthern": 5878,
            "ctors": 5879,
            "Ġfrequ": 5880,
            "ĠMexico": 5881,
            "Ġreported": 5882,
            "Ġbyeb": 5883,
            "Ġsum": 5884,
            "ĠRussia": 5885,
            "ba": 5886,
            "ropical": 5887,
            "ĠTHAT": 5888,
            "ĠFOR": 5889,
            "Ġdetermined": 5890,
            "put": 5891,
            "Ġtheory": 5892,
            "Ġsaus": 5893,
            "sters": 5894,
            "ĠDen": 5895,
            "Ġarg": 5896,
            "ĠGet": 5897,
            "Ġepisode": 5898,
            "Ġdying": 5899,
            "Ġdistribut": 5900,
            "Ġexpression": 5901,
            "ĠIreland": 5902,
            "Ġburied": 5903,
            "Ġrelease": 5904,
            "ĠDistrict": 5905,
            "'M": 5906,
            "ĠDO": 5907,
            "Ġboxes": 5908,
            "non": 5909,
            "Ġrank": 5910,
            "Ġexpens": 5911,
            "Ġqueen": 5912,
            "Ġfold": 5913,
            "Ġcris": 5914,
            "ilities": 5915,
            "Ġterr": 5916,
            "Ġobjects": 5917,
            "reedom": 5918,
            "lear": 5919,
            "[l": 5920,
            "ĠPak": 5921,
            "ĠIsrael": 5922,
            "ĠCollege": 5923,
            "Con": 5924,
            "mark": 5925,
            "Ġmagnet": 5926,
            "Ġplastic": 5927,
            "ĠLo": 5928,
            "tained": 5929,
            "Ġentirely": 5930,
            "Ġquack": 5931,
            "Ġtravell": 5932,
            "Ġartist": 5933,
            "gain": 5934,
            "Ġmirror": 5935,
            "unts": 5936,
            "Ġexerc": 5937,
            "Ġcaterpill": 5938,
            "Ġyard": 5939,
            "Ġends": 5940,
            "ĠAfrican": 5941,
            "Ġwitness": 5942,
            "Ġcups": 5943,
            "Ġcentral": 5944,
            "ĠLook": 5945,
            "Ġfigures": 5946,
            "Ġfan": 5947,
            "Ġforever": 5948,
            "Ġsignal": 5949,
            "Ġdamn": 5950,
            "oma": 5951,
            "Ġinstant": 5952,
            "Ġjumping": 5953,
            "vy": 5954,
            "ware": 5955,
            "Ġtypes": 5956,
            "ĠMajor": 5957,
            "ĠRes": 5958,
            "Ġrealized": 5959,
            "Bye": 5960,
            "ram": 5961,
            "Ġexcit": 5962,
            "Ġpointing": 5963,
            "Ġdescribed": 5964,
            "Ġstones": 5965,
            "Ġbecoming": 5966,
            "quar": 5967,
            "Ġincludes": 5968,
            "boy": 5969,
            "Ġfond": 5970,
            "appy": 5971,
            "WH": 5972,
            "Ġprepar": 5973,
            "aging": 5974,
            "Char": 5975,
            "Ġzzz": 5976,
            "Ġexcellent": 5977,
            "Ġcomment": 5978,
            "Ġyummy": 5979,
            "Ġlibr": 5980,
            "Ġveh": 5981,
            "bury": 5982,
            "Ġocean": 5983,
            "Ġpulls": 5984,
            "ocratic": 5985,
            "Ġpuppy": 5986,
            "ias": 5987,
            "Ġpointed": 5988,
            "ga": 5989,
            "Ġghost": 5990,
            "Ġbyebye": 5991,
            "igned": 5992,
            "Ġwid": 5993,
            "Ġbunch": 5994,
            "ĠMore": 5995,
            "ĠSee": 5996,
            "ĠPo": 5997,
            "Ġstaying": 5998,
            "Ġestabl": 5999,
            "ands": 6000,
            "Ed": 6001,
            "Ġmixed": 6002,
            "oving": 6003,
            "Ġicecream": 6004,
            "ila": 6005,
            "esty": 6006,
            "Ġshooting": 6007,
            "IV": 6008,
            "_UK": 6009,
            "riend": 6010,
            "Dad": 6011,
            "ella": 6012,
            "ĠSing": 6013,
            ";\\": 6014,
            "Lea": 6015,
            "ieutenant": 6016,
            "Ġsports": 6017,
            "Ġtrains": 6018,
            "Ġcarriage": 6019,
            "ĠArt": 6020,
            "ĠAtl": 6021,
            "Ġdarkness": 6022,
            "ĠHaw": 6023,
            "essed": 6024,
            "bow": 6025,
            "ĠCath": 6026,
            "(S": 6027,
            "Ġgiant": 6028,
            "Ġrom": 6029,
            "ĠKim": 6030,
            "ĠPrime": 6031,
            "angle": 6032,
            "fa": 6033,
            "Ġdamage": 6034,
            "Ha": 6035,
            "ĠDa": 6036,
            "Ġmumm": 6037,
            "Ġreasons": 6038,
            "Rem": 6039,
            "Since": 6040,
            "isha": 6041,
            "Ġuniversity": 6042,
            "Ġmaid": 6043,
            "Ġcutting": 6044,
            "Something": 6045,
            "aring": 6046,
            "Ġunderstood": 6047,
            "Ġfamilies": 6048,
            "Ġgift": 6049,
            "aze": 6050,
            "Ġobserved": 6051,
            "[.": 6052,
            "Ġminister": 6053,
            "silence": 6054,
            "ĠLab": 6055,
            "isco": 6056,
            "Ġladder": 6057,
            "Ġwore": 6058,
            "Ġjigs": 6059,
            "Ġfolks": 6060,
            "Ġcircumst": 6061,
            "Ġlies": 6062,
            "they": 6063,
            "berries": 6064,
            "Ġpic": 6065,
            "ĠBart": 6066,
            "Ġcrown": 6067,
            "Ġfamiliar": 6068,
            "Ġgathered": 6069,
            ".âĢĻ": 6070,
            "Ġtip": 6071,
            "Ġwaves": 6072,
            "Ġdegree": 6073,
            "',": 6074,
            "Aye": 6075,
            "Ġdiam": 6076,
            "ential": 6077,
            "Ġkm": 6078,
            "pir": 6079,
            "Ġpor": 6080,
            "'am": 6081,
            "Le": 6082,
            "lam": 6083,
            "Ġaside": 6084,
            "atsy": 6085,
            "Ġstranger": 6086,
            "Ġaye": 6087,
            "-bye": 6088,
            "Ġnewspaper": 6089,
            "Ġstops": 6090,
            "ĠGovernor": 6091,
            "ĠScotland": 6092,
            "Ġapparently": 6093,
            "Ġtask": 6094,
            "Ġbutterfly": 6095,
            "Ġdoggy": 6096,
            "Ġpaying": 6097,
            "Ġsouthern": 6098,
            "Ġsore": 6099,
            "vo": 6100,
            "Ġboom": 6101,
            "cel": 6102,
            "ulations": 6103,
            "Ġcharacters": 6104,
            "Ġactivity": 6105,
            "Ġadvice": 6106,
            "ĠCanadian": 6107,
            "Ġforms": 6108,
            "illing": 6109,
            "Ġpros": 6110,
            "Ġhunt": 6111,
            "innie": 6112,
            "olm": 6113,
            "Ġleaf": 6114,
            "Ġentertain": 6115,
            "usic": 6116,
            "ĠSoviet": 6117,
            "enced": 6118,
            "Ġcampaign": 6119,
            "Ġmamma": 6120,
            "Ġcompanion": 6121,
            "ĠFar": 6122,
            "ĠIrish": 6123,
            "Ġyards": 6124,
            "-year": 6125,
            "Ġexcitement": 6126,
            "hh": 6127,
            "osition": 6128,
            "Ġpolicy": 6129,
            "III": 6130,
            "ĠSecret": 6131,
            "ĠCentral": 6132,
            "Ġdump": 6133,
            "Ġrise": 6134,
            "Ġperform": 6135,
            "Ġsport": 6136,
            "\\\"'": 6137,
            "ĠLos": 6138,
            "Ġextend": 6139,
            "Ġvent": 6140,
            "Ġhidden": 6141,
            "ĠBea": 6142,
            "Ġsecurity": 6143,
            "ĠBarb": 6144,
            "Ġscreen": 6145,
            "ĠVirgin": 6146,
            "ifle": 6147,
            "Ġthroughout": 6148,
            "Ġmatches": 6149,
            "Ġdistur": 6150,
            "Ġslept": 6151,
            "Ġmagazine": 6152,
            "tt": 6153,
            "ocks": 6154,
            "Ġlocked": 6155,
            "Ġshame": 6156,
            "ĠOs": 6157,
            "oston": 6158,
            "Ġhorrible": 6159,
            "/H": 6160,
            "Ġast": 6161,
            "Ġfac": 6162,
            "Ġtom": 6163,
            "Ġdesper": 6164,
            "âĢľWhat": 6165,
            "Ġsusp": 6166,
            "ĠTy": 6167,
            "*ROZ": 6168,
            "Ġpean": 6169,
            "Ġamazing": 6170,
            "Ġsurely": 6171,
            "Ġmoo": 6172,
            "ĠGab": 6173,
            "neath": 6174,
            "ĠHi": 6175,
            "Ġdesire": 6176,
            "Ġsword": 6177,
            "Ġreceive": 6178,
            "Ã¤": 6179,
            "Ġtooth": 6180,
            "ĠPen": 6181,
            "Ġcommunic": 6182,
            "IE": 6183,
            "ĠChampionship": 6184,
            "Ġwrest": 6185,
            "vocalize": 6186,
            "Ġwestern": 6187,
            "ĠSaint": 6188,
            "Ġmeas": 6189,
            "ĠRon": 6190,
            "Ġcourage": 6191,
            "ĠJeff": 6192,
            "Ġplanet": 6193,
            "ĠProf": 6194,
            "Ġpicking": 6195,
            "Ġcandy": 6196,
            "Ġchampions": 6197,
            "Ġholes": 6198,
            "Pr": 6199,
            "ima": 6200,
            "Ġpartner": 6201,
            "Ġtotally": 6202,
            "Ġinnoc": 6203,
            "hum": 6204,
            "Ġkilling": 6205,
            "En": 6206,
            "Ġfairy": 6207,
            "Tw": 6208,
            "sung": 6209,
            "ĠFire": 6210,
            "Ġlone": 6211,
            "Ġslightly": 6212,
            "Ġadminist": 6213,
            "Ġwooden": 6214,
            "ua": 6215,
            "Ġdish": 6216,
            "Ġgray": 6217,
            "Ġsymp": 6218,
            "Ġhammer": 6219,
            "Ġcopy": 6220,
            "Ġdestroyed": 6221,
            "Ġspr": 6222,
            "avy": 6223,
            "Ġeffects": 6224,
            "ĠEmpire": 6225,
            "Ġyo": 6226,
            "Ġwondered": 6227,
            "umper": 6228,
            "Act": 6229,
            "ĠSqu": 6230,
            "Ġbuildings": 6231,
            "ĠTer": 6232,
            "vis": 6233,
            "Ġtough": 6234,
            "aboo": 6235,
            "Ġfox": 6236,
            "Ġsweetheart": 6237,
            "iance": 6238,
            "Ġtickle": 6239,
            "Ġpow": 6240,
            "ĠVictor": 6241,
            "Ġsquee": 6242,
            "Ġtrunk": 6243,
            "Ġbesides": 6244,
            "Ġfier": 6245,
            "ederal": 6246,
            "ĠAndy": 6247,
            "ppy": 6248,
            "iverse": 6249,
            "ishop": 6250,
            "Ġseparate": 6251,
            "Ġrecorded": 6252,
            "gly": 6253,
            "-H": 6254,
            "[T": 6255,
            "ĠBird": 6256,
            "ĠHill": 6257,
            "hess": 6258,
            "Ġconstit": 6259,
            "yeah": 6260,
            "Ġrecently": 6261,
            "Ġphil": 6262,
            "vin": 6263,
            "apping": 6264,
            "Ġrang": 6265,
            "aining": 6266,
            "Ġchairs": 6267,
            "Ġess": 6268,
            "Ġowner": 6269,
            "Ġrecorder": 6270,
            "ĠSol": 6271,
            "Ġchannel": 6272,
            "*OTH": 6273,
            "Ġmeasure": 6274,
            "Ġuseful": 6275,
            "IGHT": 6276,
            "ooper": 6277,
            "Ġissue": 6278,
            "GE": 6279,
            "ST": 6280,
            "rang": 6281,
            "ĠVan": 6282,
            "Ġbitch": 6283,
            "ja": 6284,
            "Ġlistened": 6285,
            "ĠSteve": 6286,
            "Ġstepped": 6287,
            "Ġcurrently": 6288,
            "IA": 6289,
            "Ġspite": 6290,
            "Ġowned": 6291,
            "Ġcurious": 6292,
            "uesday": 6293,
            "Ġproved": 6294,
            "Ġfeather": 6295,
            "Ġtreasure": 6296,
            "Ġforeign": 6297,
            "Ġmedical": 6298,
            "igan": 6299,
            "âĢĶâĢĶ": 6300,
            "Ġfrogs": 6301,
            "ĠHon": 6302,
            "Ġweekend": 6303,
            "cod": 6304,
            "ado": 6305,
            "via": 6306,
            "rate": 6307,
            "while": 6308,
            "Ġlifted": 6309,
            "ĠAmericans": 6310,
            "Ġmainly": 6311,
            "itzerland": 6312,
            "Ġactive": 6313,
            "Ġinstr": 6314,
            "ĠCast": 6315,
            "Ġgrandma": 6316,
            "Ġencour": 6317,
            "Ġgoat": 6318,
            "ANT": 6319,
            "Ġprogress": 6320,
            "Ġhonour": 6321,
            "Ġstatistics": 6322,
            "Ġinterview": 6323,
            "Ġsymb": 6324,
            "ĠEdward": 6325,
            "esides": 6326,
            "za": 6327,
            "Ġinit": 6328,
            "Ġscore": 6329,
            "aval": 6330,
            "Ġcontr": 6331,
            "uted": 6332,
            "Ġbricks": 6333,
            "Ġcitiz": 6334,
            "ĠPop": 6335,
            "Ġhelps": 6336,
            "ĠRh": 6337,
            "Ġjail": 6338,
            "Ġbanana": 6339,
            "odd": 6340,
            "Once": 6341,
            "Ġstreets": 6342,
            "ault": 6343,
            "ested": 6344,
            "Ġformula": 6345,
            "ĠJimmie": 6346,
            "Ġbreaking": 6347,
            "Ġestablished": 6348,
            "Ġprisoners": 6349,
            "Ġtoilet": 6350,
            "IK": 6351,
            "ĠJimmy": 6352,
            "Ġperformed": 6353,
            "Ġcraft": 6354,
            "Ġlorry": 6355,
            "ĠNick": 6356,
            "ILL": 6357,
            "[G": 6358,
            "Ġinstru": 6359,
            "bird": 6360,
            "dro": 6361,
            "ĠHave": 6362,
            "Didn": 6363,
            "heast": 6364,
            "ĠPooh": 6365,
            "Ġterror": 6366,
            "Ġrapidly": 6367,
            "urance": 6368,
            "Ġpatter": 6369,
            "ĠRoger": 6370,
            "CA": 6371,
            "umble": 6372,
            "Ġclouds": 6373,
            "Other": 6374,
            "Ġtrous": 6375,
            "ĠAngeles": 6376,
            "Ġburning": 6377,
            "dad": 6378,
            "Ġcreature": 6379,
            "voc": 6380,
            "ĠSyl": 6381,
            "ĠFox": 6382,
            "ĠLike": 6383,
            "Ġtraffic": 6384,
            "Ġwounded": 6385,
            "Ġhes": 6386,
            "hib": 6387,
            "anches": 6388,
            "Ġsorts": 6389,
            "untary": 6390,
            "itcher": 6391,
            "ĠTw": 6392,
            "Cap": 6393,
            "Ġsisters": 6394,
            "ursday": 6395,
            "Ġstrike": 6396,
            "ĠSwitzerland": 6397,
            "ĠBa": 6398,
            "ĠEs": 6399,
            "ĠDar": 6400,
            "ĠPrin": 6401,
            "Ġdivided": 6402,
            "Ġrush": 6403,
            "Ġbranch": 6404,
            "Ġmama": 6405,
            "Ġarran": 6406,
            "Ġinfluence": 6407,
            "Ġremoved": 6408,
            "Ġrear": 6409,
            "Ġenjoyed": 6410,
            "Ġlaws": 6411,
            "Ġtear": 6412,
            "ĠMos": 6413,
            "aren": 6414,
            "Ġunderneath": 6415,
            "arts": 6416,
            "Ġbodies": 6417,
            "Ind": 6418,
            "Ġdata": 6419,
            "Ġsole": 6420,
            "Ġautom": 6421,
            "Ġenvironment": 6422,
            "erves": 6423,
            "amin": 6424,
            "uries": 6425,
            "ĠHE": 6426,
            "Ġweapons": 6427,
            "Ġï¿½ï¿½ï¿½ï¿½": 6428,
            "Ġspo": 6429,
            "Ġdrama": 6430,
            "Nice": 6431,
            "Ġbecomes": 6432,
            "Ġcompanies": 6433,
            "icing": 6434,
            "ĠRec": 6435,
            "-like": 6436,
            "ĠCH": 6437,
            "Ġachie": 6438,
            "ĠMur": 6439,
            "osen": 6440,
            "reck": 6441,
            "Ġupper": 6442,
            "ati": 6443,
            "ĠMars": 6444,
            "Ġhandsome": 6445,
            "aus": 6446,
            "Ġnervous": 6447,
            "ĠTed": 6448,
            "umn": 6449,
            "ĠDada": 6450,
            "âĢľNo": 6451,
            "Ġqueer": 6452,
            "Ġseventy": 6453,
            "ĠCorn": 6454,
            "Ġscarcely": 6455,
            "EO": 6456,
            "inal": 6457,
            "ĠHal": 6458,
            "anchester": 6459,
            "EM": 6460,
            "Ġwra": 6461,
            "Ġlanded": 6462,
            "Ġperformance": 6463,
            "ares": 6464,
            "Ġetc": 6465,
            "Ġrecording": 6466,
            "Ġhabit": 6467,
            "enth": 6468,
            "Ġchips": 6469,
            "Ġjacket": 6470,
            "-G": 6471,
            "ĠDiv": 6472,
            "Ġnormally": 6473,
            "Early": 6474,
            "peech": 6475,
            "Ġours": 6476,
            "Ġpurse": 6477,
            "Ġgradu": 6478,
            "Ġfeatures": 6479,
            "Ġevidently": 6480,
            "Ġblame": 6481,
            "Ġdifficulty": 6482,
            "Ġgir": 6483,
            "Ġdreams": 6484,
            "Ġwashed": 6485,
            "Ġ(;": 6486,
            "Ġcredit": 6487,
            "Ġsection": 6488,
            "ĠZeal": 6489,
            "ĠBoston": 6490,
            "Ġshower": 6491,
            "Ġtowns": 6492,
            "Ġcouch": 6493,
            "ĠCourt": 6494,
            "Ġoblig": 6495,
            "Ġdunno": 6496,
            "ĠSil": 6497,
            "Ġinvited": 6498,
            "Ġtransl": 6499,
            "Ġstomach": 6500,
            "Ġbags": 6501,
            "ĠLatin": 6502,
            "erk": 6503,
            "ĠPakistan": 6504,
            "OD": 6505,
            "book": 6506,
            "ano": 6507,
            "Ġglance": 6508,
            "ĠAMY": 6509,
            "ĠVal": 6510,
            "Ġmummie": 6511,
            "-a": 6512,
            "ication": 6513,
            "Ġrestaur": 6514,
            "Ġdoo": 6515,
            "iece": 6516,
            "Ġliber": 6517,
            "HER": 6518,
            "Ġbeneath": 6519,
            "Ġpale": 6520,
            "usted": 6521,
            "Ġjigsaw": 6522,
            "ĠHot": 6523,
            "Ġadop": 6524,
            "[w": 6525,
            "engers": 6526,
            "Ġaer": 6527,
            "Ġlearning": 6528,
            "tin": 6529,
            "estival": 6530,
            "Ġmort": 6531,
            "Ġsomehow": 6532,
            "Ġcolour": 6533,
            "Ġbon": 6534,
            "Ġcreate": 6535,
            "âĢķ": 6536,
            "ĠRom": 6537,
            "Ġtender": 6538,
            "Ġhunting": 6539,
            "Ġgreatly": 6540,
            "Ġawake": 6541,
            "Ġfaint": 6542,
            "Ġcompeted": 6543,
            "Ġnearer": 6544,
            "Ġeats": 6545,
            "Ġwhee": 6546,
            "ĠWhile": 6547,
            "Ġgolden": 6548,
            "ĠZealand": 6549,
            "Ġrolling": 6550,
            "UST": 6551,
            "ednes": 6552,
            "Ġfields": 6553,
            "ilty": 6554,
            "El": 6555,
            "chuckles": 6556,
            "Ġstudent": 6557,
            "Ġsticks": 6558,
            "Ġsweetie": 6559,
            "Ġapartment": 6560,
            "Ġunus": 6561,
            "ailed": 6562,
            "Ġadvantage": 6563,
            "Ġsoap": 6564,
            "Ġsplend": 6565,
            "thew": 6566,
            "Ġreview": 6567,
            "umed": 6568,
            "Ġbone": 6569,
            "Ġpresently": 6570,
            "Ġexciting": 6571,
            "Ġben": 6572,
            "actually": 6573,
            "ĠBritain": 6574,
            "ĠElizabeth": 6575,
            "Ġcaterpillar": 6576,
            "Ġbears": 6577,
            "ĠWomen": 6578,
            "ds": 6579,
            "Ġspider": 6580,
            "ĠMet": 6581,
            "Ġdeliver": 6582,
            "Cha": 6583,
            "Ġbones": 6584,
            "Ġnation": 6585,
            "Ġclosely": 6586,
            "Ġmap": 6587,
            "Ġpony": 6588,
            "Ġterrit": 6589,
            "Ġraise": 6590,
            "Ġbaseball": 6591,
            "ednesday": 6592,
            "Ġtrial": 6593,
            "Ġtarget": 6594,
            "Ġcows": 6595,
            "inned": 6596,
            "Ġrooms": 6597,
            "iation": 6598,
            "Ġlord": 6599,
            "Ġalarm": 6600,
            "Ġresponsible": 6601,
            "inson": 6602,
            "Ġhills": 6603,
            "Ġunknown": 6604,
            "Most": 6605,
            "Ġwire": 6606,
            "Ġequal": 6607,
            "Ġcash": 6608,
            "Ġdesce": 6609,
            "ĠBest": 6610,
            "Ġpond": 6611,
            "EW": 6612,
            "*GR": 6613,
            "Ġexperien": 6614,
            "While": 6615,
            "ann": 6616,
            "ĠStar": 6617,
            "ĠBrian": 6618,
            "ĠArthur": 6619,
            "Ġlou": 6620,
            "igator": 6621,
            "âĢľThat": 6622,
            "Ġplanning": 6623,
            "Ġdrunk": 6624,
            "Ġtrousers": 6625,
            "Ġresist": 6626,
            "Fine": 6627,
            "Ġprize": 6628,
            "[f": 6629,
            "zer": 6630,
            "ĠParliament": 6631,
            "Ġprincess": 6632,
            "met": 6633,
            "Ġengaged": 6634,
            "Help": 6635,
            "Ġborrow": 6636,
            "Ġlosing": 6637,
            "ĠLes": 6638,
            "Ġfolk": 6639,
            "Ġborder": 6640,
            "istry": 6641,
            "Care": 6642,
            "Ġslipped": 6643,
            "Ġtreated": 6644,
            "ros": 6645,
            "Ġfortune": 6646,
            "SE": 6647,
            "Ġlack": 6648,
            "Ġproduction": 6649,
            "Ġspecific": 6650,
            "\\\"?\\": 6651,
            "Ġresults": 6652,
            "Ġbranches": 6653,
            "Ġleaders": 6654,
            "Ġdrown": 6655,
            "Ġmerry": 6656,
            "Ġrushed": 6657,
            "ĠLisa": 6658,
            "Ġpant": 6659,
            "ĠJerry": 6660,
            "Ġcommun": 6661,
            "Ġcot": 6662,
            "Ġairport": 6663,
            "ĠFa": 6664,
            "Ġreckon": 6665,
            "Ġguitar": 6666,
            "Ġhath": 6667,
            "ĠJulia": 6668,
            "Ġintellig": 6669,
            "Ġhasta": 6670,
            "mhm": 6671,
            "kee": 6672,
            "rose": 6673,
            "Ġexchan": 6674,
            "Ġmerc": 6675,
            "Ġpile": 6676,
            "ĠAssoci": 6677,
            "Ġtransport": 6678,
            "Ġdeer": 6679,
            "nw": 6680,
            "Ġrent": 6681,
            "[Peter": 6682,
            "uous": 6683,
            "Over": 6684,
            "Ġlod": 6685,
            "Ġordinary": 6686,
            "Ġlibrary": 6687,
            "Ġfal": 6688,
            "ĠGovernment": 6689,
            "Ġreligion": 6690,
            "-sh": 6691,
            "[R": 6692,
            "-T": 6693,
            "Ġsupply": 6694,
            "-time": 6695,
            "Ġsuffe": 6696,
            "point": 6697,
            "orence": 6698,
            "eding": 6699,
            "Ġindividual": 6700,
            "Ġdolls": 6701,
            "which": 6702,
            "war": 6703,
            "Ġsigns": 6704,
            "geant": 6705,
            "Ġsmooth": 6706,
            "bec": 6707,
            "ĠNicole": 6708,
            "Ġgosh": 6709,
            "ĠPolly": 6710,
            "Bob": 6711,
            "Ġaim": 6712,
            "ĠHind": 6713,
            "Ġchim": 6714,
            "Ġjobs": 6715,
            "icket": 6716,
            "Ġhearts": 6717,
            "ĠOx": 6718,
            "Ġhurts": 6719,
            "Ġspare": 6720,
            "ĠYoung": 6721,
            "ĠBecky": 6722,
            "Ġhomes": 6723,
            "ĠApp": 6724,
            "Ġnodd": 6725,
            "Ġswear": 6726,
            "Ġreplaced": 6727,
            "rapes": 6728,
            "elled": 6729,
            "Ġbadly": 6730,
            "Ġsumm": 6731,
            "Ġlit": 6732,
            "Ġbrings": 6733,
            "Ġgrant": 6734,
            "ĠStep": 6735,
            "Ġchop": 6736,
            "ĠIll": 6737,
            "Ġpity": 6738,
            "Ġupside": 6739,
            "ulated": 6740,
            "alking": 6741,
            "Ġtend": 6742,
            "During": 6743,
            "bling": 6744,
            "stitute": 6745,
            "Ġkidding": 6746,
            "Ġpresents": 6747,
            "Ġaccess": 6748,
            "Ġlonely": 6749,
            "ĠChair": 6750,
            "Ġpalace": 6751,
            "Ġpipe": 6752,
            "ĠGeorg": 6753,
            "ĠBaby": 6754,
            "Ġgang": 6755,
            "ĠFirstname": 6756,
            "ador": 6757,
            "Ġbreast": 6758,
            "ĠBefore": 6759,
            "ĠTommy": 6760,
            ".C": 6761,
            "stead": 6762,
            "Ġchanging": 6763,
            "Ġrelief": 6764,
            "yo": 6765,
            "ĠWE": 6766,
            "Ġrequired": 6767,
            "ĠHu": 6768,
            "*KAR": 6769,
            "Ġcruel": 6770,
            "ITH": 6771,
            "iraffe": 6772,
            "sighs": 6773,
            "Ġdecor": 6774,
            "Ġindustry": 6775,
            "Ġoriginally": 6776,
            "Ġaccepted": 6777,
            "there": 6778,
            "Ġteaching": 6779,
            "ĠJon": 6780,
            "ĠSince": 6781,
            "ĠFore": 6782,
            "Ġindependent": 6783,
            "Ġinvol": 6784,
            "-You": 6785,
            "Ġpussy": 6786,
            "Ġdishes": 6787,
            "Ġwoof": 6788,
            "Ġbeer": 6789,
            "Ġcoal": 6790,
            "Ã©e": 6791,
            "Ġlads": 6792,
            "ko": 6793,
            "Ġunif": 6794,
            "Ġparticip": 6795,
            "orse": 6796,
            "ajesty": 6797,
            "],": 6798,
            "Ġmusical": 6799,
            "Ġreligious": 6800,
            "ĠProvince": 6801,
            "ooking": 6802,
            "[pointing": 6803,
            "Ġinha": 6804,
            "acle": 6805,
            "ĠWay": 6806,
            "Ġdemon": 6807,
            "Ġpitcher": 6808,
            "Ġrode": 6809,
            "Ġcompetition": 6810,
            "Ġcrocod": 6811,
            "ĠCatholic": 6812,
            "ĠCamp": 6813,
            "[st": 6814,
            "Ġmighty": 6815,
            "-What": 6816,
            "Ġwolf": 6817,
            "ĠBre": 6818,
            "Ġchosen": 6819,
            "ception": 6820,
            "Ġagre": 6821,
            "Ġpicnic": 6822,
            "Mother": 6823,
            "Ġpitch": 6824,
            "Ġjam": 6825,
            "Ġsets": 6826,
            "ĠLy": 6827,
            "Ġcontent": 6828,
            "ointment": 6829,
            "Ġrefused": 6830,
            "Ġsympat": 6831,
            "LY": 6832,
            "Ġprisoner": 6833,
            "Ġsevere": 6834,
            "Ġuns": 6835,
            "Ġapples": 6836,
            "Ġintroduced": 6837,
            "Ġwinning": 6838,
            "Ġdelicious": 6839,
            "Ġuseta": 6840,
            "Ġlink": 6841,
            "artment": 6842,
            "ĠLove": 6843,
            "Ġfifth": 6844,
            "Ġtin": 6845,
            "Ġjelly": 6846,
            "Ġincident": 6847,
            "Ġcircumstances": 6848,
            "arian": 6849,
            "Ġdemanded": 6850,
            "fish": 6851,
            "oli": 6852,
            "ĠAngel": 6853,
            "Ġattacked": 6854,
            "stein": 6855,
            "Ġvictory": 6856,
            "keep": 6857,
            "Ġcandid": 6858,
            "Ġstack": 6859,
            "ĠServ": 6860,
            "ĠNight": 6861,
            "Ġthousands": 6862,
            "Ġpilot": 6863,
            "esh": 6864,
            "Ġsquir": 6865,
            "Ġdelay": 6866,
            "ĠPap": 6867,
            "Ġrecom": 6868,
            "Anyway": 6869,
            "enger": 6870,
            "ura": 6871,
            "Ġrolled": 6872,
            "Ġload": 6873,
            "Ġsplit": 6874,
            "Ġapolog": 6875,
            "-E": 6876,
            "Ġcher": 6877,
            "ĠPot": 6878,
            "ĠDorothy": 6879,
            "Ġpiano": 6880,
            "-le": 6881,
            "about": 6882,
            "emies": 6883,
            "Ġcaptured": 6884,
            "Ġgy": 6885,
            "Ġfarther": 6886,
            "BE": 6887,
            "Ġrat": 6888,
            "Ġwagon": 6889,
            "ateg": 6890,
            "Ġcru": 6891,
            "eaking": 6892,
            "Ġbeans": 6893,
            "Ġthrows": 6894,
            "ï¿½ï¿½ï¿½": 6895,
            "Ġhoping": 6896,
            "ĠRod": 6897,
            "Ġrecognized": 6898,
            "Huh": 6899,
            "Ġx": 6900,
            "Ġchain": 6901,
            "Ġsteam": 6902,
            "ifts": 6903,
            "unning": 6904,
            "sell": 6905,
            "Ġmyst": 6906,
            "Ġpure": 6907,
            "Ġcommer": 6908,
            "Ġgrandmother": 6909,
            "Ġsteady": 6910,
            "Ġintended": 6911,
            "Ġthir": 6912,
            "*ELA": 6913,
            "ĠTra": 6914,
            "mpion": 6915,
            "Ġcompanions": 6916,
            "eral": 6917,
            "Ġseriously": 6918,
            "Think": 6919,
            "Ġpoison": 6920,
            "Ġtal": 6921,
            "Ġescaped": 6922,
            "ĠUm": 6923,
            "Ġadmir": 6924,
            "ani": 6925,
            "ĠGirl": 6926,
            "Ġquality": 6927,
            "Ġanti": 6928,
            "Ġroy": 6929,
            "Ġguilty": 6930,
            "uz": 6931,
            "Ġwhenever": 6932,
            "Ġhoped": 6933,
            "Ġtemperature": 6934,
            "bel": 6935,
            "Ġwoke": 6936,
            "Ġoven": 6937,
            "Ġcounter": 6938,
            "ora": 6939,
            "Ġthorough": 6940,
            "ĠBrad": 6941,
            "Ġannoy": 6942,
            "[be": 6943,
            "had": 6944,
            "ĠAng": 6945,
            "Ġsuffic": 6946,
            "Ġprovided": 6947,
            "Ġpoliceman": 6948,
            "Ġpee": 6949,
            "ĠAllah": 6950,
            "Shut": 6951,
            "Ġadmit": 6952,
            "Ġaid": 6953,
            "Ġtoss": 6954,
            "Ġgrace": 6955,
            "Ġrot": 6956,
            "icted": 6957,
            "Ġcurtain": 6958,
            "Ġweapon": 6959,
            "Ġfant": 6960,
            "rog": 6961,
            "rences": 6962,
            "Ġeighteen": 6963,
            "Ġugly": 6964,
            "Father": 6965,
            "lers": 6966,
            "ĠFer": 6967,
            "inky": 6968,
            "ĠClub": 6969,
            "Ġcrossed": 6970,
            "umbled": 6971,
            "ĠFe": 6972,
            "Ġconce": 6973,
            "Ġdu": 6974,
            "Nobody": 6975,
            "shine": 6976,
            "Ġowl": 6977,
            "OME": 6978,
            "ĠTown": 6979,
            "ĠSom": 6980,
            "Ġclimbed": 6981,
            "Ġgained": 6982,
            "Ġmechan": 6983,
            "Ġspeaks": 6984,
            "Ġplanned": 6985,
            "ĠGames": 6986,
            "Ġprofessor": 6987,
            "Ġavoid": 6988,
            "sembly": 6989,
            "ĠTuesday": 6990,
            "Ġrecords": 6991,
            "Ġsource": 6992,
            "Ã±": 6993,
            "otte": 6994,
            "ĠGil": 6995,
            "Ġdrug": 6996,
            "py": 6997,
            "rough": 6998,
            "Ġgiraffe": 6999,
            "keys": 7000,
            "Ġscratch": 7001,
            "bin": 7002,
            "Ġparties": 7003,
            "Ġappointed": 7004,
            "Make": 7005,
            "ĠAny": 7006,
            "Ġash": 7007,
            "Ġwaters": 7008,
            "*KF": 7009,
            "Ġearnest": 7010,
            "olution": 7011,
            "Ġcomedy": 7012,
            "Ġexpensive": 7013,
            "Ġpushing": 7014,
            "chair": 7015,
            "ĠFoot": 7016,
            "emic": 7017,
            "gery": 7018,
            "Ġculture": 7019,
            "arn": 7020,
            "Ġrug": 7021,
            "hew": 7022,
            "ĠSpr": 7023,
            "rier": 7024,
            "onsense": 7025,
            "Ġconditions": 7026,
            "Ġdesigned": 7027,
            "Ġkissed": 7028,
            "ava": 7029,
            "Ġeagerly": 7030,
            "Ġgrandfather": 7031,
            "Ġdawn": 7032,
            "Ġnut": 7033,
            "Ġsatisfied": 7034,
            "ability": 7035,
            "Ġactual": 7036,
            "Ġappears": 7037,
            "Ġsixteen": 7038,
            "Ġprovide": 7039,
            "Ġshadow": 7040,
            "Ġbucket": 7041,
            "ĠSk": 7042,
            "Ġscary": 7043,
            "Ġracing": 7044,
            "Ġcomr": 7045,
            "ĠCle": 7046,
            "ieve": 7047,
            "Ġguest": 7048,
            "Ġsignific": 7049,
            "Ġmoments": 7050,
            "alds": 7051,
            "isl": 7052,
            "cribed": 7053,
            "Ġbelongs": 7054,
            "ĠCaroline": 7055,
            "kel": 7056,
            "hetti": 7057,
            "Ġadventure": 7058,
            "Ġcave": 7059,
            "Ġremains": 7060,
            "ancing": 7061,
            "Ġclimbing": 7062,
            "-and": 7063,
            "Ġpassage": 7064,
            "Ġdivision": 7065,
            "]\"Ċ": 7066,
            "Ġadvance": 7067,
            "ĠPeggy": 7068,
            "Ġtiss": 7069,
            "opter": 7070,
            "ivity": 7071,
            "Ġapproach": 7072,
            "playing": 7073,
            "Ġflash": 7074,
            "rank": 7075,
            "Ġhadta": 7076,
            "Ġvir": 7077,
            "Ġdivor": 7078,
            "sm": 7079,
            "Ġlessons": 7080,
            "overy": 7081,
            "ĠBell": 7082,
            "ĠUp": 7083,
            "coughs": 7084,
            "Ġbitter": 7085,
            "iture": 7086,
            "ĠFil": 7087,
            "Ġcritic": 7088,
            "Ġcam": 7089,
            "Ġsentence": 7090,
            "Ġnotes": 7091,
            "shouts": 7092,
            "ĠCam": 7093,
            "Ġswitch": 7094,
            "Ġdim": 7095,
            "aned": 7096,
            "*KAT": 7097,
            "Ġsings": 7098,
            "umes": 7099,
            "Ġfourteen": 7100,
            "Ġstructure": 7101,
            "Ġpeekaboo": 7102,
            "eks": 7103,
            "Ġseated": 7104,
            "Stay": 7105,
            "Ġsang": 7106,
            "ĠGran": 7107,
            "hia": 7108,
            "ĠSa": 7109,
            "Ġtale": 7110,
            "umph": 7111,
            "Cause": 7112,
            "Ġentrance": 7113,
            "Ġsacr": 7114,
            "Ġwound": 7115,
            "alo": 7116,
            "iser": 7117,
            "ĠThursday": 7118,
            "issa": 7119,
            "PE": 7120,
            "ĠBud": 7121,
            "Ġbac": 7122,
            "onia": 7123,
            "Ġnic": 7124,
            "Sometimes": 7125,
            "Ġbelief": 7126,
            "Ġsystems": 7127,
            "ĠOnly": 7128,
            "Ġforgive": 7129,
            "ĠThanks": 7130,
            "Ġceased": 7131,
            "Out": 7132,
            "ĠThree": 7133,
            "Ġconnected": 7134,
            "Leave": 7135,
            "*COL": 7136,
            "ĠBru": 7137,
            "mouth": 7138,
            "ĠBow": 7139,
            "eps": 7140,
            "Ġfinds": 7141,
            "AI": 7142,
            "Ġsuppl": 7143,
            "Ġharder": 7144,
            "lfriend": 7145,
            "Ġlesson": 7146,
            "Ġeventually": 7147,
            "Ġincreased": 7148,
            "ĠHa": 7149,
            "Ġshining": 7150,
            "Ġfunction": 7151,
            "Ġconcent": 7152,
            "uzz": 7153,
            "Ġfoll": 7154,
            "ĠAwww": 7155,
            "Ġslave": 7156,
            "ĠCharl": 7157,
            "Ġdrugs": 7158,
            "ĠWater": 7159,
            "Ġoccurred": 7160,
            "Ġwarning": 7161,
            "ĠCons": 7162,
            "addle": 7163,
            "Ġsons": 7164,
            "ĠEric": 7165,
            "okes": 7166,
            "Ġhipp": 7167,
            "Ġconsequ": 7168,
            "Ġlets": 7169,
            "Ġrhy": 7170,
            "Ġtunnel": 7171,
            "Ġsetting": 7172,
            "unior": 7173,
            "Ġlegal": 7174,
            "ĠMister": 7175,
            "Ġvictim": 7176,
            "Ġaston": 7177,
            "ĠAT": 7178,
            "Ġbelt": 7179,
            "Ġproduce": 7180,
            "AB": 7181,
            "Ġtruly": 7182,
            "Another": 7183,
            "ĠPatsy": 7184,
            "Ġgrate": 7185,
            "Ġelder": 7186,
            "ĠTor": 7187,
            "soft": 7188,
            "Ġgrey": 7189,
            "ddie": 7190,
            "Ġextremely": 7191,
            "Ġselected": 7192,
            "Ġbuttons": 7193,
            "Ġlamb": 7194,
            "utive": 7195,
            "Ġpigs": 7196,
            "ĠHy": 7197,
            "Ġpapa": 7198,
            "ĠBas": 7199,
            "Ġrescue": 7200,
            "ĠStone": 7201,
            "Ġthirst": 7202,
            "ĠFre": 7203,
            "Ġguide": 7204,
            "Ġmarks": 7205,
            "Ġtransfer": 7206,
            "Ġpillow": 7207,
            "ĠWednesday": 7208,
            "ĠRad": 7209,
            "Ġjew": 7210,
            "ĠLand": 7211,
            "Ġgoodbye": 7212,
            "Åį": 7213,
            "Ġenemies": 7214,
            "Ġelimin": 7215,
            "Ġphilos": 7216,
            "Ġpenny": 7217,
            "Ġwealth": 7218,
            "ĠSand": 7219,
            "Ġstandard": 7220,
            "umbling": 7221,
            "Many": 7222,
            "Ġhay": 7223,
            "Ġmustn": 7224,
            "ĠSE": 7225,
            "Ġshops": 7226,
            "hus": 7227,
            "agn": 7228,
            "Ġincrease": 7229,
            "Ġdiamond": 7230,
            "Ġroles": 7231,
            "ĠNorthern": 7232,
            "Ġslip": 7233,
            "Ġliqu": 7234,
            "Ġdefend": 7235,
            "Ġauthority": 7236,
            "rial": 7237,
            "ĠNob": 7238,
            "Ġoldest": 7239,
            "Ġpoorly": 7240,
            "Ġrice": 7241,
            "ĠBus": 7242,
            "avid": 7243,
            "otes": 7244,
            "Ġsuffered": 7245,
            "ĠLong": 7246,
            "ĠBrook": 7247,
            "azz": 7248,
            "Ġdiscover": 7249,
            "hamed": 7250,
            "Ġhousehold": 7251,
            "Ġshouting": 7252,
            "Ġsooner": 7253,
            "kiss": 7254,
            "hakes": 7255,
            "ĠAbout": 7256,
            "Ġcircus": 7257,
            "ĠLucy": 7258,
            "Ġboun": 7259,
            "olk": 7260,
            "ĠDonald": 7261,
            "ĠDemocratic": 7262,
            "ĠFlorence": 7263,
            "Ġpengu": 7264,
            "More": 7265,
            "wa": 7266,
            "Ġbast": 7267,
            "ĠPre": 7268,
            "Ġsnap": 7269,
            "ami": 7270,
            "ĠBook": 7271,
            "ĠXX": 7272,
            "ĠRoad": 7273,
            "Ġaddition": 7274,
            "Ġequip": 7275,
            "ĠHA": 7276,
            "ervation": 7277,
            "Ġaltogether": 7278,
            "ties": 7279,
            "Ġsorrow": 7280,
            "ĠOut": 7281,
            "Ġgotten": 7282,
            "Ġleague": 7283,
            "Ġburned": 7284,
            "gt": 7285,
            "Ġsuck": 7286,
            "Ġsplendid": 7287,
            "rots": 7288,
            "Ġplus": 7289,
            "Ġplates": 7290,
            "nine": 7291,
            "[holds": 7292,
            "ĠProfessor": 7293,
            "ĠMatthew": 7294,
            "ĠSometimes": 7295,
            "NOW": 7296,
            "Ġfork": 7297,
            "Ġcommander": 7298,
            "ĠSecretary": 7299,
            "Â¶": 7300,
            "Ġbent": 7301,
            "Ġcough": 7302,
            "Ġpron": 7303,
            "ĠPers": 7304,
            "Ġreact": 7305,
            "ture": 7306,
            "Ġbush": 7307,
            "Ġtracks": 7308,
            "ĠDomin": 7309,
            "invol": 7310,
            "amma": 7311,
            "Ġconqu": 7312,
            "EF": 7313,
            "Ġsprang": 7314,
            "Ġmedal": 7315,
            "Ġfate": 7316,
            "Ġspots": 7317,
            "Ġkindly": 7318,
            "bage": 7319,
[...]
